{
  "version": "1.0",
  "truncation": null,
  "padding": null,
  "added_tokens": [
    {
      "id": 0,
      "content": "[UNK]",
      "single_word": false,
      "lstrip": false,
      "rstrip": false,
      "normalized": false,
      "special": true
    },
    {
      "id": 1,
      "content": "[PAD]",
      "single_word": false,
      "lstrip": false,
      "rstrip": false,
      "normalized": false,
      "special": true
    },
    {
      "id": 2,
      "content": "[CLS]",
      "single_word": false,
      "lstrip": false,
      "rstrip": false,
      "normalized": false,
      "special": true
    },
    {
      "id": 3,
      "content": "[SEP]",
      "single_word": false,
      "lstrip": false,
      "rstrip": false,
      "normalized": false,
      "special": true
    },
    {
      "id": 4,
      "content": "[MASK]",
      "single_word": false,
      "lstrip": false,
      "rstrip": false,
      "normalized": false,
      "special": true
    }
  ],
  "normalizer": {
    "type": "Sequence",
    "normalizers": [
      {
        "type": "NFD"
      },
      {
        "type": "Lowercase"
      }
    ]
  },
  "pre_tokenizer": {
    "type": "WhitespaceSplit"
  },
  "post_processor": null,
  "decoder": null,
  "model": {
    "type": "WordPiece",
    "unk_token": "[UNK]",
    "continuing_subword_prefix": "##",
    "max_input_chars_per_word": 100,
    "vocab": {
      "[UNK]": 0,
      "[PAD]": 1,
      "[CLS]": 2,
      "[SEP]": 3,
      "[MASK]": 4,
      "\"": 5,
      "%": 6,
      "'": 7,
      "(": 8,
      ")": 9,
      "+": 10,
      "-": 11,
      ".": 12,
      "/": 13,
      "0": 14,
      "1": 15,
      "2": 16,
      "3": 17,
      "4": 18,
      "5": 19,
      "6": 20,
      "7": 21,
      "8": 22,
      "9": 23,
      "=": 24,
      ">": 25,
      "]": 26,
      "_": 27,
      "`": 28,
      "a": 29,
      "b": 30,
      "c": 31,
      "d": 32,
      "e": 33,
      "f": 34,
      "g": 35,
      "h": 36,
      "i": 37,
      "j": 38,
      "k": 39,
      "l": 40,
      "m": 41,
      "n": 42,
      "o": 43,
      "p": 44,
      "q": 45,
      "r": 46,
      "s": 47,
      "t": 48,
      "u": 49,
      "v": 50,
      "w": 51,
      "x": 52,
      "y": 53,
      "z": 54,
      "}": 55,
      "°": 56,
      "±": 57,
      "·": 58,
      "×": 59,
      "ε": 60,
      "π": 61,
      "—": 62,
      "―": 63,
      "‘": 64,
      "’": 65,
      "“": 66,
      "”": 67,
      "…": 68,
      "℃": 69,
      "ⅰ": 70,
      "ⅱ": 71,
      "ⅲ": 72,
      "①": 73,
      "②": 74,
      "③": 75,
      "④": 76,
      "⑤": 77,
      "、": 78,
      "。": 79,
      "《": 80,
      "》": 81,
      "『": 82,
      "【": 83,
      "】": 84,
      "〕": 85,
      "一": 86,
      "丁": 87,
      "七": 88,
      "万": 89,
      "丈": 90,
      "三": 91,
      "上": 92,
      "下": 93,
      "不": 94,
      "与": 95,
      "丐": 96,
      "丑": 97,
      "专": 98,
      "且": 99,
      "世": 100,
      "丘": 101,
      "业": 102,
      "丛": 103,
      "东": 104,
      "丝": 105,
      "丢": 106,
      "两": 107,
      "严": 108,
      "丧": 109,
      "个": 110,
      "丫": 111,
      "中": 112,
      "丰": 113,
      "串": 114,
      "临": 115,
      "丹": 116,
      "为": 117,
      "主": 118,
      "丽": 119,
      "举": 120,
      "乃": 121,
      "久": 122,
      "么": 123,
      "义": 124,
      "之": 125,
      "乌": 126,
      "乍": 127,
      "乎": 128,
      "乏": 129,
      "乐": 130,
      "乒": 131,
      "乓": 132,
      "乔": 133,
      "乖": 134,
      "乘": 135,
      "乙": 136,
      "九": 137,
      "乞": 138,
      "也": 139,
      "习": 140,
      "乡": 141,
      "书": 142,
      "买": 143,
      "乱": 144,
      "乳": 145,
      "了": 146,
      "予": 147,
      "争": 148,
      "事": 149,
      "二": 150,
      "于": 151,
      "亏": 152,
      "云": 153,
      "互": 154,
      "五": 155,
      "井": 156,
      "亘": 157,
      "亚": 158,
      "些": 159,
      "亡": 160,
      "亢": 161,
      "交": 162,
      "产": 163,
      "亨": 164,
      "亩": 165,
      "享": 166,
      "京": 167,
      "亭": 168,
      "亮": 169,
      "亲": 170,
      "人": 171,
      "亿": 172,
      "什": 173,
      "仁": 174,
      "仃": 175,
      "仅": 176,
      "仆": 177,
      "仇": 178,
      "今": 179,
      "介": 180,
      "仍": 181,
      "从": 182,
      "仑": 183,
      "仓": 184,
      "仔": 185,
      "他": 186,
      "仗": 187,
      "付": 188,
      "仙": 189,
      "仝": 190,
      "仞": 191,
      "仟": 192,
      "代": 193,
      "令": 194,
      "以": 195,
      "仪": 196,
      "们": 197,
      "仰": 198,
      "仲": 199,
      "件": 200,
      "价": 201,
      "任": 202,
      "份": 203,
      "仿": 204,
      "企": 205,
      "伊": 206,
      "伍": 207,
      "伎": 208,
      "伏": 209,
      "伐": 210,
      "休": 211,
      "众": 212,
      "优": 213,
      "伙": 214,
      "会": 215,
      "伞": 216,
      "伟": 217,
      "传": 218,
      "伤": 219,
      "伦": 220,
      "伪": 221,
      "伯": 222,
      "估": 223,
      "伴": 224,
      "伸": 225,
      "似": 226,
      "伽": 227,
      "但": 228,
      "位": 229,
      "低": 230,
      "住": 231,
      "佐": 232,
      "佑": 233,
      "体": 234,
      "何": 235,
      "余": 236,
      "佛": 237,
      "作": 238,
      "你": 239,
      "佣": 240,
      "佩": 241,
      "佳": 242,
      "使": 243,
      "侃": 244,
      "侈": 245,
      "例": 246,
      "侍": 247,
      "侏": 248,
      "供": 249,
      "依": 250,
      "侠": 251,
      "侣": 252,
      "侥": 253,
      "侦": 254,
      "侧": 255,
      "侮": 256,
      "侯": 257,
      "侵": 258,
      "便": 259,
      "促": 260,
      "俄": 261,
      "俊": 262,
      "俏": 263,
      "俑": 264,
      "俗": 265,
      "俘": 266,
      "保": 267,
      "信": 268,
      "俩": 269,
      "俭": 270,
      "修": 271,
      "俯": 272,
      "俱": 273,
      "俺": 274,
      "倍": 275,
      "倒": 276,
      "倔": 277,
      "候": 278,
      "借": 279,
      "倡": 280,
      "倦": 281,
      "倩": 282,
      "倪": 283,
      "倭": 284,
      "值": 285,
      "倾": 286,
      "假": 287,
      "偎": 288,
      "偏": 289,
      "做": 290,
      "停": 291,
      "健": 292,
      "偬": 293,
      "偶": 294,
      "偷": 295,
      "偿": 296,
      "傅": 297,
      "傍": 298,
      "储": 299,
      "催": 300,
      "傲": 301,
      "傻": 302,
      "像": 303,
      "僚": 304,
      "僧": 305,
      "僵": 306,
      "僻": 307,
      "儒": 308,
      "儿": 309,
      "兀": 310,
      "允": 311,
      "元": 312,
      "兄": 313,
      "充": 314,
      "兆": 315,
      "先": 316,
      "光": 317,
      "克": 318,
      "免": 319,
      "兑": 320,
      "兔": 321,
      "党": 322,
      "兜": 323,
      "入": 324,
      "全": 325,
      "八": 326,
      "公": 327,
      "六": 328,
      "兮": 329,
      "兰": 330,
      "共": 331,
      "关": 332,
      "兴": 333,
      "兵": 334,
      "其": 335,
      "具": 336,
      "典": 337,
      "兹": 338,
      "养": 339,
      "兼": 340,
      "兽": 341,
      "冀": 342,
      "内": 343,
      "冈": 344,
      "冉": 345,
      "册": 346,
      "再": 347,
      "冒": 348,
      "冕": 349,
      "冗": 350,
      "写": 351,
      "军": 352,
      "农": 353,
      "冠": 354,
      "冤": 355,
      "冥": 356,
      "冬": 357,
      "冯": 358,
      "冰": 359,
      "冲": 360,
      "决": 361,
      "况": 362,
      "冶": 363,
      "冷": 364,
      "冻": 365,
      "冽": 366,
      "净": 367,
      "凄": 368,
      "准": 369,
      "凉": 370,
      "凋": 371,
      "凌": 372,
      "减": 373,
      "凑": 374,
      "凛": 375,
      "凝": 376,
      "几": 377,
      "凡": 378,
      "凤": 379,
      "凭": 380,
      "凯": 381,
      "凳": 382,
      "凶": 383,
      "凸": 384,
      "凹": 385,
      "出": 386,
      "击": 387,
      "函": 388,
      "凿": 389,
      "刀": 390,
      "刁": 391,
      "刃": 392,
      "分": 393,
      "切": 394,
      "刊": 395,
      "刍": 396,
      "刑": 397,
      "划": 398,
      "列": 399,
      "刘": 400,
      "则": 401,
      "刚": 402,
      "创": 403,
      "初": 404,
      "删": 405,
      "判": 406,
      "刨": 407,
      "利": 408,
      "别": 409,
      "刮": 410,
      "到": 411,
      "制": 412,
      "刷": 413,
      "券": 414,
      "刹": 415,
      "刺": 416,
      "刻": 417,
      "刽": 418,
      "剂": 419,
      "剃": 420,
      "削": 421,
      "剌": 422,
      "前": 423,
      "剐": 424,
      "剑": 425,
      "剔": 426,
      "剖": 427,
      "剥": 428,
      "剧": 429,
      "剩": 430,
      "剪": 431,
      "副": 432,
      "割": 433,
      "剽": 434,
      "剿": 435,
      "劈": 436,
      "力": 437,
      "劝": 438,
      "办": 439,
      "功": 440,
      "加": 441,
      "务": 442,
      "劣": 443,
      "动": 444,
      "助": 445,
      "努": 446,
      "劫": 447,
      "励": 448,
      "劲": 449,
      "劳": 450,
      "势": 451,
      "勃": 452,
      "勇": 453,
      "勉": 454,
      "勋": 455,
      "勒": 456,
      "勘": 457,
      "募": 458,
      "勤": 459,
      "勺": 460,
      "勾": 461,
      "勿": 462,
      "匀": 463,
      "包": 464,
      "匆": 465,
      "匕": 466,
      "化": 467,
      "北": 468,
      "匙": 469,
      "匠": 470,
      "匣": 471,
      "匮": 472,
      "匹": 473,
      "区": 474,
      "医": 475,
      "匿": 476,
      "十": 477,
      "千": 478,
      "升": 479,
      "午": 480,
      "半": 481,
      "华": 482,
      "协": 483,
      "卑": 484,
      "卒": 485,
      "卓": 486,
      "单": 487,
      "卖": 488,
      "南": 489,
      "博": 490,
      "卜": 491,
      "卞": 492,
      "占": 493,
      "卡": 494,
      "卢": 495,
      "卦": 496,
      "卧": 497,
      "卫": 498,
      "印": 499,
      "危": 500,
      "即": 501,
      "却": 502,
      "卵": 503,
      "卷": 504,
      "卸": 505,
      "卿": 506,
      "厂": 507,
      "厅": 508,
      "历": 509,
      "厉": 510,
      "压": 511,
      "厌": 512,
      "厕": 513,
      "厘": 514,
      "厚": 515,
      "原": 516,
      "厢": 517,
      "厥": 518,
      "厦": 519,
      "厨": 520,
      "厩": 521,
      "厮": 522,
      "去": 523,
      "县": 524,
      "参": 525,
      "又": 526,
      "叉": 527,
      "及": 528,
      "友": 529,
      "双": 530,
      "反": 531,
      "发": 532,
      "叔": 533,
      "取": 534,
      "受": 535,
      "变": 536,
      "叙": 537,
      "叛": 538,
      "叠": 539,
      "口": 540,
      "古": 541,
      "句": 542,
      "另": 543,
      "叨": 544,
      "只": 545,
      "叫": 546,
      "召": 547,
      "叭": 548,
      "叮": 549,
      "可": 550,
      "台": 551,
      "史": 552,
      "右": 553,
      "叶": 554,
      "号": 555,
      "司": 556,
      "叹": 557,
      "叼": 558,
      "叽": 559,
      "吁": 560,
      "吃": 561,
      "各": 562,
      "合": 563,
      "吉": 564,
      "吊": 565,
      "吋": 566,
      "同": 567,
      "名": 568,
      "后": 569,
      "吐": 570,
      "向": 571,
      "吓": 572,
      "吗": 573,
      "君": 574,
      "吝": 575,
      "吞": 576,
      "吟": 577,
      "吠": 578,
      "否": 579,
      "吧": 580,
      "吨": 581,
      "吩": 582,
      "含": 583,
      "听": 584,
      "吮": 585,
      "启": 586,
      "吱": 587,
      "吴": 588,
      "吵": 589,
      "吸": 590,
      "吹": 591,
      "吻": 592,
      "吼": 593,
      "吾": 594,
      "呀": 595,
      "呆": 596,
      "呈": 597,
      "告": 598,
      "呐": 599,
      "呓": 600,
      "呕": 601,
      "呗": 602,
      "员": 603,
      "呛": 604,
      "呜": 605,
      "呢": 606,
      "周": 607,
      "味": 608,
      "呵": 609,
      "呸": 610,
      "呼": 611,
      "命": 612,
      "咀": 613,
      "咄": 614,
      "咆": 615,
      "咋": 616,
      "和": 617,
      "咐": 618,
      "咒": 619,
      "咔": 620,
      "咕": 621,
      "咖": 622,
      "咙": 623,
      "咚": 624,
      "咝": 625,
      "咣": 626,
      "咦": 627,
      "咧": 628,
      "咨": 629,
      "咪": 630,
      "咫": 631,
      "咬": 632,
      "咯": 633,
      "咱": 634,
      "咳": 635,
      "咸": 636,
      "咽": 637,
      "哀": 638,
      "品": 639,
      "哄": 640,
      "哆": 641,
      "哇": 642,
      "哈": 643,
      "响": 644,
      "哎": 645,
      "哑": 646,
      "哒": 647,
      "哗": 648,
      "哝": 649,
      "哥": 650,
      "哦": 651,
      "哨": 652,
      "哪": 653,
      "哭": 654,
      "哮": 655,
      "哲": 656,
      "哺": 657,
      "哼": 658,
      "哽": 659,
      "唇": 660,
      "唉": 661,
      "唏": 662,
      "唐": 663,
      "唔": 664,
      "唠": 665,
      "唤": 666,
      "唪": 667,
      "售": 668,
      "唯": 669,
      "唱": 670,
      "唾": 671,
      "啃": 672,
      "商": 673,
      "啊": 674,
      "啐": 675,
      "啕": 676,
      "啜": 677,
      "啡": 678,
      "啤": 679,
      "啥": 680,
      "啦": 681,
      "啪": 682,
      "啬": 683,
      "啮": 684,
      "啰": 685,
      "啷": 686,
      "啸": 687,
      "啼": 688,
      "啾": 689,
      "喂": 690,
      "喃": 691,
      "善": 692,
      "喇": 693,
      "喉": 694,
      "喊": 695,
      "喋": 696,
      "喘": 697,
      "喜": 698,
      "喝": 699,
      "喧": 700,
      "喳": 701,
      "喷": 702,
      "喻": 703,
      "嗅": 704,
      "嗒": 705,
      "嗓": 706,
      "嗔": 707,
      "嗖": 708,
      "嗜": 709,
      "嗡": 710,
      "嗣": 711,
      "嗤": 712,
      "嗦": 713,
      "嗨": 714,
      "嗯": 715,
      "嗽": 716,
      "嘀": 717,
      "嘁": 718,
      "嘈": 719,
      "嘉": 720,
      "嘘": 721,
      "嘛": 722,
      "嘟": 723,
      "嘤": 724,
      "嘭": 725,
      "嘱": 726,
      "嘲": 727,
      "嘴": 728,
      "嘶": 729,
      "嘹": 730,
      "嘻": 731,
      "嘿": 732,
      "噗": 733,
      "噜": 734,
      "噢": 735,
      "器": 736,
      "噩": 737,
      "噪": 738,
      "噬": 739,
      "噶": 740,
      "噼": 741,
      "嚎": 742,
      "嚓": 743,
      "嚣": 744,
      "嚷": 745,
      "嚼": 746,
      "囊": 747,
      "囔": 748,
      "囚": 749,
      "四": 750,
      "回": 751,
      "因": 752,
      "团": 753,
      "园": 754,
      "困": 755,
      "围": 756,
      "固": 757,
      "国": 758,
      "图": 759,
      "圆": 760,
      "圈": 761,
      "土": 762,
      "圣": 763,
      "在": 764,
      "地": 765,
      "场": 766,
      "圾": 767,
      "址": 768,
      "均": 769,
      "坍": 770,
      "坎": 771,
      "坏": 772,
      "坐": 773,
      "坑": 774,
      "块": 775,
      "坚": 776,
      "坛": 777,
      "坝": 778,
      "坞": 779,
      "坟": 780,
      "坠": 781,
      "坡": 782,
      "坦": 783,
      "坪": 784,
      "坯": 785,
      "坷": 786,
      "垂": 787,
      "垃": 788,
      "垄": 789,
      "型": 790,
      "垒": 791,
      "垛": 792,
      "垠": 793,
      "垢": 794,
      "垦": 795,
      "垩": 796,
      "垫": 797,
      "垮": 798,
      "埂": 799,
      "埃": 800,
      "埋": 801,
      "城": 802,
      "域": 803,
      "培": 804,
      "基": 805,
      "堂": 806,
      "堆": 807,
      "堕": 808,
      "堡": 809,
      "堤": 810,
      "堪": 811,
      "堵": 812,
      "塌": 813,
      "塑": 814,
      "塔": 815,
      "塘": 816,
      "塞": 817,
      "填": 818,
      "境": 819,
      "墅": 820,
      "墒": 821,
      "墓": 822,
      "墙": 823,
      "增": 824,
      "墟": 825,
      "墨": 826,
      "墩": 827,
      "壁": 828,
      "壑": 829,
      "壕": 830,
      "壤": 831,
      "士": 832,
      "壮": 833,
      "声": 834,
      "壳": 835,
      "处": 836,
      "备": 837,
      "复": 838,
      "夏": 839,
      "夕": 840,
      "外": 841,
      "多": 842,
      "夜": 843,
      "够": 844,
      "大": 845,
      "天": 846,
      "太": 847,
      "夫": 848,
      "夭": 849,
      "央": 850,
      "失": 851,
      "头": 852,
      "夷": 853,
      "夸": 854,
      "夹": 855,
      "夺": 856,
      "奄": 857,
      "奇": 858,
      "奈": 859,
      "奉": 860,
      "奋": 861,
      "奏": 862,
      "契": 863,
      "奔": 864,
      "奖": 865,
      "套": 866,
      "奠": 867,
      "奢": 868,
      "奥": 869,
      "女": 870,
      "奴": 871,
      "奶": 872,
      "奸": 873,
      "她": 874,
      "好": 875,
      "如": 876,
      "妄": 877,
      "妆": 878,
      "妇": 879,
      "妈": 880,
      "妒": 881,
      "妓": 882,
      "妖": 883,
      "妙": 884,
      "妞": 885,
      "妥": 886,
      "妩": 887,
      "妮": 888,
      "妹": 889,
      "妻": 890,
      "姆": 891,
      "始": 892,
      "姐": 893,
      "姑": 894,
      "姓": 895,
      "委": 896,
      "姗": 897,
      "姣": 898,
      "姨": 899,
      "姬": 900,
      "姻": 901,
      "姿": 902,
      "威": 903,
      "娃": 904,
      "娇": 905,
      "娑": 906,
      "娓": 907,
      "娘": 908,
      "娜": 909,
      "娟": 910,
      "娩": 911,
      "娱": 912,
      "娶": 913,
      "娼": 914,
      "婆": 915,
      "婉": 916,
      "婊": 917,
      "婚": 918,
      "婪": 919,
      "婴": 920,
      "婷": 921,
      "媒": 922,
      "媚": 923,
      "媲": 924,
      "媳": 925,
      "嫁": 926,
      "嫉": 927,
      "嫌": 928,
      "嫡": 929,
      "嫩": 930,
      "嬉": 931,
      "嬴": 932,
      "子": 933,
      "孔": 934,
      "孕": 935,
      "字": 936,
      "存": 937,
      "孙": 938,
      "孝": 939,
      "季": 940,
      "孤": 941,
      "学": 942,
      "孩": 943,
      "孰": 944,
      "孵": 945,
      "孽": 946,
      "宁": 947,
      "它": 948,
      "宅": 949,
      "宇": 950,
      "守": 951,
      "安": 952,
      "宋": 953,
      "完": 954,
      "宏": 955,
      "宗": 956,
      "官": 957,
      "宙": 958,
      "定": 959,
      "宜": 960,
      "宝": 961,
      "实": 962,
      "宠": 963,
      "审": 964,
      "客": 965,
      "宣": 966,
      "室": 967,
      "宪": 968,
      "宫": 969,
      "宰": 970,
      "害": 971,
      "宴": 972,
      "宵": 973,
      "家": 974,
      "容": 975,
      "宽": 976,
      "宾": 977,
      "宿": 978,
      "寂": 979,
      "寄": 980,
      "密": 981,
      "富": 982,
      "寐": 983,
      "寒": 984,
      "寓": 985,
      "寝": 986,
      "寞": 987,
      "察": 988,
      "寡": 989,
      "寥": 990,
      "寨": 991,
      "寸": 992,
      "对": 993,
      "寺": 994,
      "寻": 995,
      "导": 996,
      "寿": 997,
      "封": 998,
      "射": 999,
      "将": 1000,
      "尉": 1001,
      "尊": 1002,
      "小": 1003,
      "少": 1004,
      "尔": 1005,
      "尖": 1006,
      "尘": 1007,
      "尚": 1008,
      "尝": 1009,
      "尤": 1010,
      "尬": 1011,
      "就": 1012,
      "尴": 1013,
      "尸": 1014,
      "尺": 1015,
      "尼": 1016,
      "尽": 1017,
      "尾": 1018,
      "尿": 1019,
      "局": 1020,
      "屁": 1021,
      "层": 1022,
      "居": 1023,
      "屈": 1024,
      "届": 1025,
      "屋": 1026,
      "屎": 1027,
      "屏": 1028,
      "屐": 1029,
      "屑": 1030,
      "展": 1031,
      "属": 1032,
      "屠": 1033,
      "履": 1034,
      "屯": 1035,
      "山": 1036,
      "屹": 1037,
      "屿": 1038,
      "岁": 1039,
      "岂": 1040,
      "岌": 1041,
      "岔": 1042,
      "岗": 1043,
      "岛": 1044,
      "岩": 1045,
      "岭": 1046,
      "岳": 1047,
      "岸": 1048,
      "峋": 1049,
      "峙": 1050,
      "峡": 1051,
      "峦": 1052,
      "峨": 1053,
      "峭": 1054,
      "峰": 1055,
      "峻": 1056,
      "崇": 1057,
      "崎": 1058,
      "崖": 1059,
      "崛": 1060,
      "崩": 1061,
      "崭": 1062,
      "嵌": 1063,
      "嶙": 1064,
      "巅": 1065,
      "巍": 1066,
      "川": 1067,
      "州": 1068,
      "巡": 1069,
      "巢": 1070,
      "工": 1071,
      "左": 1072,
      "巧": 1073,
      "巨": 1074,
      "巫": 1075,
      "差": 1076,
      "己": 1077,
      "已": 1078,
      "巳": 1079,
      "巴": 1080,
      "巷": 1081,
      "巾": 1082,
      "币": 1083,
      "市": 1084,
      "布": 1085,
      "帅": 1086,
      "帆": 1087,
      "师": 1088,
      "希": 1089,
      "帐": 1090,
      "帕": 1091,
      "帘": 1092,
      "帜": 1093,
      "帝": 1094,
      "带": 1095,
      "帧": 1096,
      "席": 1097,
      "帮": 1098,
      "帷": 1099,
      "常": 1100,
      "帽": 1101,
      "幄": 1102,
      "幅": 1103,
      "幔": 1104,
      "幕": 1105,
      "幢": 1106,
      "干": 1107,
      "平": 1108,
      "年": 1109,
      "并": 1110,
      "幸": 1111,
      "幺": 1112,
      "幻": 1113,
      "幼": 1114,
      "幽": 1115,
      "广": 1116,
      "庄": 1117,
      "庆": 1118,
      "床": 1119,
      "序": 1120,
      "库": 1121,
      "应": 1122,
      "底": 1123,
      "店": 1124,
      "庙": 1125,
      "府": 1126,
      "庞": 1127,
      "废": 1128,
      "度": 1129,
      "座": 1130,
      "庭": 1131,
      "庶": 1132,
      "康": 1133,
      "庸": 1134,
      "廉": 1135,
      "廊": 1136,
      "廓": 1137,
      "廖": 1138,
      "延": 1139,
      "廷": 1140,
      "建": 1141,
      "开": 1142,
      "异": 1143,
      "弃": 1144,
      "弄": 1145,
      "弈": 1146,
      "弋": 1147,
      "式": 1148,
      "弓": 1149,
      "引": 1150,
      "弗": 1151,
      "弛": 1152,
      "弟": 1153,
      "张": 1154,
      "弥": 1155,
      "弦": 1156,
      "弧": 1157,
      "弩": 1158,
      "弭": 1159,
      "弯": 1160,
      "弱": 1161,
      "弹": 1162,
      "强": 1163,
      "归": 1164,
      "当": 1165,
      "录": 1166,
      "彗": 1167,
      "形": 1168,
      "彤": 1169,
      "彩": 1170,
      "彬": 1171,
      "彭": 1172,
      "彰": 1173,
      "影": 1174,
      "役": 1175,
      "彻": 1176,
      "彼": 1177,
      "往": 1178,
      "征": 1179,
      "径": 1180,
      "待": 1181,
      "很": 1182,
      "徊": 1183,
      "律": 1184,
      "徐": 1185,
      "徒": 1186,
      "得": 1187,
      "徘": 1188,
      "徙": 1189,
      "御": 1190,
      "循": 1191,
      "微": 1192,
      "德": 1193,
      "徽": 1194,
      "心": 1195,
      "必": 1196,
      "忆": 1197,
      "忌": 1198,
      "忍": 1199,
      "忏": 1200,
      "忒": 1201,
      "志": 1202,
      "忘": 1203,
      "忙": 1204,
      "忠": 1205,
      "忡": 1206,
      "忧": 1207,
      "忪": 1208,
      "快": 1209,
      "念": 1210,
      "忽": 1211,
      "怀": 1212,
      "态": 1213,
      "怅": 1214,
      "怍": 1215,
      "怎": 1216,
      "怏": 1217,
      "怒": 1218,
      "怕": 1219,
      "怖": 1220,
      "怜": 1221,
      "思": 1222,
      "怠": 1223,
      "怡": 1224,
      "急": 1225,
      "性": 1226,
      "怨": 1227,
      "怪": 1228,
      "怫": 1229,
      "怯": 1230,
      "总": 1231,
      "恋": 1232,
      "恍": 1233,
      "恐": 1234,
      "恒": 1235,
      "恕": 1236,
      "恙": 1237,
      "恢": 1238,
      "恣": 1239,
      "恨": 1240,
      "恩": 1241,
      "恫": 1242,
      "恬": 1243,
      "恭": 1244,
      "息": 1245,
      "恰": 1246,
      "恳": 1247,
      "恶": 1248,
      "恺": 1249,
      "恻": 1250,
      "恼": 1251,
      "悄": 1252,
      "悉": 1253,
      "悍": 1254,
      "悔": 1255,
      "悖": 1256,
      "悟": 1257,
      "悠": 1258,
      "患": 1259,
      "悦": 1260,
      "您": 1261,
      "悬": 1262,
      "悯": 1263,
      "悲": 1264,
      "悴": 1265,
      "悸": 1266,
      "悻": 1267,
      "情": 1268,
      "惆": 1269,
      "惊": 1270,
      "惋": 1271,
      "惑": 1272,
      "惕": 1273,
      "惚": 1274,
      "惜": 1275,
      "惠": 1276,
      "惧": 1277,
      "惨": 1278,
      "惩": 1279,
      "惫": 1280,
      "惬": 1281,
      "惮": 1282,
      "惯": 1283,
      "惰": 1284,
      "想": 1285,
      "惶": 1286,
      "惹": 1287,
      "惺": 1288,
      "愁": 1289,
      "愈": 1290,
      "愉": 1291,
      "意": 1292,
      "愕": 1293,
      "愚": 1294,
      "感": 1295,
      "愠": 1296,
      "愣": 1297,
      "愤": 1298,
      "愧": 1299,
      "愿": 1300,
      "慈": 1301,
      "慌": 1302,
      "慎": 1303,
      "慑": 1304,
      "慕": 1305,
      "慢": 1306,
      "慧": 1307,
      "慨": 1308,
      "慰": 1309,
      "慷": 1310,
      "憋": 1311,
      "憎": 1312,
      "憔": 1313,
      "憾": 1314,
      "懂": 1315,
      "懈": 1316,
      "懊": 1317,
      "懒": 1318,
      "戈": 1319,
      "戎": 1320,
      "戏": 1321,
      "成": 1322,
      "我": 1323,
      "戒": 1324,
      "或": 1325,
      "战": 1326,
      "戚": 1327,
      "戛": 1328,
      "戟": 1329,
      "截": 1330,
      "戮": 1331,
      "戳": 1332,
      "戴": 1333,
      "户": 1334,
      "戾": 1335,
      "房": 1336,
      "所": 1337,
      "扁": 1338,
      "扇": 1339,
      "扉": 1340,
      "手": 1341,
      "才": 1342,
      "扎": 1343,
      "扑": 1344,
      "打": 1345,
      "扔": 1346,
      "托": 1347,
      "扛": 1348,
      "扣": 1349,
      "执": 1350,
      "扩": 1351,
      "扫": 1352,
      "扬": 1353,
      "扭": 1354,
      "扮": 1355,
      "扯": 1356,
      "扰": 1357,
      "扳": 1358,
      "扶": 1359,
      "批": 1360,
      "扼": 1361,
      "找": 1362,
      "承": 1363,
      "技": 1364,
      "抄": 1365,
      "抉": 1366,
      "把": 1367,
      "抑": 1368,
      "抓": 1369,
      "投": 1370,
      "抖": 1371,
      "抗": 1372,
      "折": 1373,
      "抚": 1374,
      "抛": 1375,
      "抡": 1376,
      "抢": 1377,
      "护": 1378,
      "报": 1379,
      "抨": 1380,
      "披": 1381,
      "抬": 1382,
      "抱": 1383,
      "抵": 1384,
      "抹": 1385,
      "押": 1386,
      "抽": 1387,
      "抿": 1388,
      "拂": 1389,
      "拄": 1390,
      "担": 1391,
      "拆": 1392,
      "拇": 1393,
      "拉": 1394,
      "拍": 1395,
      "拎": 1396,
      "拐": 1397,
      "拒": 1398,
      "拓": 1399,
      "拔": 1400,
      "拖": 1401,
      "拘": 1402,
      "拙": 1403,
      "招": 1404,
      "拜": 1405,
      "拟": 1406,
      "拢": 1407,
      "拣": 1408,
      "拥": 1409,
      "拦": 1410,
      "拧": 1411,
      "拨": 1412,
      "择": 1413,
      "括": 1414,
      "拭": 1415,
      "拯": 1416,
      "拱": 1417,
      "拳": 1418,
      "拴": 1419,
      "拷": 1420,
      "拼": 1421,
      "拽": 1422,
      "拾": 1423,
      "拿": 1424,
      "持": 1425,
      "挂": 1426,
      "指": 1427,
      "按": 1428,
      "挑": 1429,
      "挖": 1430,
      "挚": 1431,
      "挛": 1432,
      "挟": 1433,
      "挠": 1434,
      "挡": 1435,
      "挣": 1436,
      "挤": 1437,
      "挥": 1438,
      "挨": 1439,
      "挪": 1440,
      "挫": 1441,
      "振": 1442,
      "挺": 1443,
      "挽": 1444,
      "捂": 1445,
      "捅": 1446,
      "捉": 1447,
      "捍": 1448,
      "捎": 1449,
      "捏": 1450,
      "捐": 1451,
      "捕": 1452,
      "捞": 1453,
      "损": 1454,
      "捡": 1455,
      "换": 1456,
      "捣": 1457,
      "捧": 1458,
      "据": 1459,
      "捶": 1460,
      "捷": 1461,
      "捻": 1462,
      "掀": 1463,
      "掇": 1464,
      "授": 1465,
      "掉": 1466,
      "掌": 1467,
      "掏": 1468,
      "掐": 1469,
      "排": 1470,
      "掘": 1471,
      "掠": 1472,
      "探": 1473,
      "掣": 1474,
      "接": 1475,
      "控": 1476,
      "推": 1477,
      "掩": 1478,
      "措": 1479,
      "掰": 1480,
      "掷": 1481,
      "掸": 1482,
      "揉": 1483,
      "揍": 1484,
      "描": 1485,
      "提": 1486,
      "插": 1487,
      "握": 1488,
      "揣": 1489,
      "揪": 1490,
      "揭": 1491,
      "援": 1492,
      "揶": 1493,
      "揽": 1494,
      "搀": 1495,
      "搁": 1496,
      "搂": 1497,
      "搅": 1498,
      "搏": 1499,
      "搐": 1500,
      "搓": 1501,
      "搔": 1502,
      "搜": 1503,
      "搞": 1504,
      "搬": 1505,
      "搭": 1506,
      "携": 1507,
      "摄": 1508,
      "摆": 1509,
      "摇": 1510,
      "摊": 1511,
      "摒": 1512,
      "摔": 1513,
      "摘": 1514,
      "摞": 1515,
      "摧": 1516,
      "摩": 1517,
      "摸": 1518,
      "撂": 1519,
      "撇": 1520,
      "撑": 1521,
      "撒": 1522,
      "撕": 1523,
      "撞": 1524,
      "撤": 1525,
      "撩": 1526,
      "撬": 1527,
      "播": 1528,
      "撮": 1529,
      "撰": 1530,
      "撼": 1531,
      "擀": 1532,
      "擂": 1533,
      "擅": 1534,
      "操": 1535,
      "擎": 1536,
      "擦": 1537,
      "攀": 1538,
      "攘": 1539,
      "攥": 1540,
      "攫": 1541,
      "支": 1542,
      "收": 1543,
      "改": 1544,
      "攻": 1545,
      "放": 1546,
      "政": 1547,
      "故": 1548,
      "效": 1549,
      "敌": 1550,
      "敏": 1551,
      "救": 1552,
      "教": 1553,
      "敛": 1554,
      "敞": 1555,
      "敢": 1556,
      "散": 1557,
      "敦": 1558,
      "敬": 1559,
      "数": 1560,
      "敲": 1561,
      "整": 1562,
      "敷": 1563,
      "文": 1564,
      "斌": 1565,
      "斐": 1566,
      "斑": 1567,
      "斓": 1568,
      "斗": 1569,
      "料": 1570,
      "斜": 1571,
      "斟": 1572,
      "斤": 1573,
      "斥": 1574,
      "斧": 1575,
      "斩": 1576,
      "断": 1577,
      "斯": 1578,
      "新": 1579,
      "方": 1580,
      "施": 1581,
      "旁": 1582,
      "旅": 1583,
      "旋": 1584,
      "族": 1585,
      "旗": 1586,
      "无": 1587,
      "既": 1588,
      "日": 1589,
      "旦": 1590,
      "旧": 1591,
      "旨": 1592,
      "早": 1593,
      "旬": 1594,
      "旭": 1595,
      "时": 1596,
      "旷": 1597,
      "旺": 1598,
      "昂": 1599,
      "昆": 1600,
      "昌": 1601,
      "明": 1602,
      "昏": 1603,
      "易": 1604,
      "昔": 1605,
      "昕": 1606,
      "星": 1607,
      "映": 1608,
      "春": 1609,
      "昧": 1610,
      "昨": 1611,
      "昭": 1612,
      "是": 1613,
      "昵": 1614,
      "昼": 1615,
      "显": 1616,
      "晃": 1617,
      "晋": 1618,
      "晌": 1619,
      "晒": 1620,
      "晓": 1621,
      "晕": 1622,
      "晖": 1623,
      "晗": 1624,
      "晚": 1625,
      "晟": 1626,
      "晤": 1627,
      "晦": 1628,
      "晨": 1629,
      "普": 1630,
      "景": 1631,
      "晰": 1632,
      "晴": 1633,
      "晶": 1634,
      "晷": 1635,
      "智": 1636,
      "晾": 1637,
      "暂": 1638,
      "暇": 1639,
      "暑": 1640,
      "暖": 1641,
      "暗": 1642,
      "暮": 1643,
      "暴": 1644,
      "曙": 1645,
      "曜": 1646,
      "曝": 1647,
      "曦": 1648,
      "曲": 1649,
      "曳": 1650,
      "更": 1651,
      "曹": 1652,
      "曼": 1653,
      "曾": 1654,
      "替": 1655,
      "最": 1656,
      "月": 1657,
      "有": 1658,
      "朋": 1659,
      "服": 1660,
      "朔": 1661,
      "朕": 1662,
      "朗": 1663,
      "望": 1664,
      "朝": 1665,
      "期": 1666,
      "朦": 1667,
      "木": 1668,
      "未": 1669,
      "末": 1670,
      "本": 1671,
      "札": 1672,
      "术": 1673,
      "朴": 1674,
      "朵": 1675,
      "机": 1676,
      "朽": 1677,
      "杀": 1678,
      "杂": 1679,
      "权": 1680,
      "杆": 1681,
      "杉": 1682,
      "李": 1683,
      "杏": 1684,
      "材": 1685,
      "村": 1686,
      "杖": 1687,
      "杜": 1688,
      "束": 1689,
      "杠": 1690,
      "条": 1691,
      "来": 1692,
      "杨": 1693,
      "杭": 1694,
      "杯": 1695,
      "杰": 1696,
      "杳": 1697,
      "松": 1698,
      "板": 1699,
      "极": 1700,
      "构": 1701,
      "析": 1702,
      "枕": 1703,
      "林": 1704,
      "枚": 1705,
      "果": 1706,
      "枝": 1707,
      "枪": 1708,
      "枫": 1709,
      "枯": 1710,
      "架": 1711,
      "枷": 1712,
      "柄": 1713,
      "柏": 1714,
      "某": 1715,
      "染": 1716,
      "柔": 1717,
      "柜": 1718,
      "柞": 1719,
      "柠": 1720,
      "查": 1721,
      "柬": 1722,
      "柯": 1723,
      "柱": 1724,
      "柳": 1725,
      "柴": 1726,
      "柿": 1727,
      "栅": 1728,
      "标": 1729,
      "栈": 1730,
      "栉": 1731,
      "栋": 1732,
      "栎": 1733,
      "栏": 1734,
      "树": 1735,
      "栓": 1736,
      "栖": 1737,
      "栗": 1738,
      "校": 1739,
      "栩": 1740,
      "株": 1741,
      "样": 1742,
      "核": 1743,
      "根": 1744,
      "格": 1745,
      "栽": 1746,
      "桁": 1747,
      "桃": 1748,
      "桅": 1749,
      "框": 1750,
      "案": 1751,
      "桌": 1752,
      "桐": 1753,
      "桑": 1754,
      "桓": 1755,
      "桔": 1756,
      "桢": 1757,
      "档": 1758,
      "桥": 1759,
      "桦": 1760,
      "桨": 1761,
      "桩": 1762,
      "桶": 1763,
      "梁": 1764,
      "梅": 1765,
      "梢": 1766,
      "梦": 1767,
      "梧": 1768,
      "梭": 1769,
      "梯": 1770,
      "械": 1771,
      "梳": 1772,
      "梵": 1773,
      "检": 1774,
      "棉": 1775,
      "棋": 1776,
      "棍": 1777,
      "棒": 1778,
      "棕": 1779,
      "棘": 1780,
      "棚": 1781,
      "森": 1782,
      "棱": 1783,
      "棵": 1784,
      "棺": 1785,
      "椅": 1786,
      "植": 1787,
      "椎": 1788,
      "椒": 1789,
      "椭": 1790,
      "椰": 1791,
      "楂": 1792,
      "楔": 1793,
      "楚": 1794,
      "楠": 1795,
      "楼": 1796,
      "概": 1797,
      "榄": 1798,
      "榆": 1799,
      "榔": 1800,
      "榨": 1801,
      "榭": 1802,
      "榴": 1803,
      "榻": 1804,
      "槌": 1805,
      "槛": 1806,
      "槟": 1807,
      "槽": 1808,
      "樟": 1809,
      "模": 1810,
      "横": 1811,
      "橄": 1812,
      "橇": 1813,
      "橘": 1814,
      "橙": 1815,
      "橡": 1816,
      "橱": 1817,
      "檐": 1818,
      "檬": 1819,
      "欠": 1820,
      "次": 1821,
      "欢": 1822,
      "欣": 1823,
      "欧": 1824,
      "欲": 1825,
      "欺": 1826,
      "款": 1827,
      "歇": 1828,
      "歉": 1829,
      "歌": 1830,
      "止": 1831,
      "正": 1832,
      "此": 1833,
      "步": 1834,
      "武": 1835,
      "歧": 1836,
      "歪": 1837,
      "死": 1838,
      "歼": 1839,
      "殆": 1840,
      "殊": 1841,
      "残": 1842,
      "殖": 1843,
      "殚": 1844,
      "殡": 1845,
      "段": 1846,
      "殷": 1847,
      "殿": 1848,
      "毁": 1849,
      "毅": 1850,
      "毋": 1851,
      "母": 1852,
      "每": 1853,
      "毒": 1854,
      "比": 1855,
      "毕": 1856,
      "毙": 1857,
      "毛": 1858,
      "毡": 1859,
      "毫": 1860,
      "毯": 1861,
      "氏": 1862,
      "民": 1863,
      "氓": 1864,
      "气": 1865,
      "氕": 1866,
      "氘": 1867,
      "氚": 1868,
      "氛": 1869,
      "氢": 1870,
      "氦": 1871,
      "氧": 1872,
      "氨": 1873,
      "氮": 1874,
      "氯": 1875,
      "水": 1876,
      "永": 1877,
      "汁": 1878,
      "求": 1879,
      "汇": 1880,
      "汉": 1881,
      "汐": 1882,
      "汗": 1883,
      "汛": 1884,
      "江": 1885,
      "池": 1886,
      "污": 1887,
      "汤": 1888,
      "汪": 1889,
      "汰": 1890,
      "汲": 1891,
      "汹": 1892,
      "汽": 1893,
      "沁": 1894,
      "沃": 1895,
      "沉": 1896,
      "沌": 1897,
      "沐": 1898,
      "沓": 1899,
      "沙": 1900,
      "沛": 1901,
      "沟": 1902,
      "没": 1903,
      "沥": 1904,
      "沦": 1905,
      "沧": 1906,
      "沫": 1907,
      "沮": 1908,
      "河": 1909,
      "沸": 1910,
      "油": 1911,
      "治": 1912,
      "沽": 1913,
      "沾": 1914,
      "沿": 1915,
      "泄": 1916,
      "泉": 1917,
      "泊": 1918,
      "泌": 1919,
      "法": 1920,
      "泛": 1921,
      "泞": 1922,
      "泡": 1923,
      "波": 1924,
      "泣": 1925,
      "泥": 1926,
      "注": 1927,
      "泪": 1928,
      "泰": 1929,
      "泳": 1930,
      "泻": 1931,
      "泼": 1932,
      "泽": 1933,
      "泾": 1934,
      "洁": 1935,
      "洋": 1936,
      "洒": 1937,
      "洗": 1938,
      "洛": 1939,
      "洞": 1940,
      "津": 1941,
      "洪": 1942,
      "洲": 1943,
      "活": 1944,
      "洼": 1945,
      "洽": 1946,
      "派": 1947,
      "流": 1948,
      "浅": 1949,
      "浆": 1950,
      "浇": 1951,
      "浊": 1952,
      "测": 1953,
      "济": 1954,
      "浏": 1955,
      "浑": 1956,
      "浓": 1957,
      "浙": 1958,
      "浦": 1959,
      "浩": 1960,
      "浪": 1961,
      "浮": 1962,
      "浴": 1963,
      "海": 1964,
      "浸": 1965,
      "涂": 1966,
      "涅": 1967,
      "消": 1968,
      "涉": 1969,
      "涌": 1970,
      "涓": 1971,
      "涕": 1972,
      "涛": 1973,
      "涟": 1974,
      "涡": 1975,
      "涣": 1976,
      "涤": 1977,
      "润": 1978,
      "涨": 1979,
      "涩": 1980,
      "涯": 1981,
      "液": 1982,
      "涵": 1983,
      "涸": 1984,
      "淀": 1985,
      "淋": 1986,
      "淌": 1987,
      "淑": 1988,
      "淘": 1989,
      "淙": 1990,
      "淡": 1991,
      "淤": 1992,
      "淫": 1993,
      "深": 1994,
      "混": 1995,
      "淹": 1996,
      "添": 1997,
      "淼": 1998,
      "清": 1999,
      "渊": 2000,
      "渍": 2001,
      "渐": 2002,
      "渔": 2003,
      "渗": 2004,
      "渠": 2005,
      "渡": 2006,
      "渣": 2007,
      "渥": 2008,
      "温": 2009,
      "渭": 2010,
      "港": 2011,
      "渲": 2012,
      "渴": 2013,
      "游": 2014,
      "渺": 2015,
      "湃": 2016,
      "湍": 2017,
      "湖": 2018,
      "湘": 2019,
      "湛": 2020,
      "湮": 2021,
      "湾": 2022,
      "湿": 2023,
      "溃": 2024,
      "溅": 2025,
      "溏": 2026,
      "源": 2027,
      "溜": 2028,
      "溢": 2029,
      "溪": 2030,
      "溯": 2031,
      "溶": 2032,
      "溺": 2033,
      "滋": 2034,
      "滑": 2035,
      "滔": 2036,
      "滚": 2037,
      "滞": 2038,
      "满": 2039,
      "滤": 2040,
      "滥": 2041,
      "滨": 2042,
      "滩": 2043,
      "滴": 2044,
      "漂": 2045,
      "漆": 2046,
      "漉": 2047,
      "漏": 2048,
      "漓": 2049,
      "演": 2050,
      "漠": 2051,
      "漩": 2052,
      "漪": 2053,
      "漫": 2054,
      "漱": 2055,
      "漾": 2056,
      "潘": 2057,
      "潜": 2058,
      "潞": 2059,
      "潦": 2060,
      "潭": 2061,
      "潮": 2062,
      "澄": 2063,
      "澈": 2064,
      "澎": 2065,
      "澜": 2066,
      "澡": 2067,
      "澳": 2068,
      "激": 2069,
      "濒": 2070,
      "瀑": 2071,
      "瀚": 2072,
      "灌": 2073,
      "火": 2074,
      "灭": 2075,
      "灯": 2076,
      "灰": 2077,
      "灵": 2078,
      "灼": 2079,
      "灾": 2080,
      "灿": 2081,
      "炉": 2082,
      "炊": 2083,
      "炎": 2084,
      "炕": 2085,
      "炙": 2086,
      "炫": 2087,
      "炬": 2088,
      "炭": 2089,
      "炮": 2090,
      "炯": 2091,
      "炸": 2092,
      "点": 2093,
      "炼": 2094,
      "炽": 2095,
      "烁": 2096,
      "烂": 2097,
      "烈": 2098,
      "烙": 2099,
      "烛": 2100,
      "烟": 2101,
      "烤": 2102,
      "烦": 2103,
      "烧": 2104,
      "烫": 2105,
      "烬": 2106,
      "热": 2107,
      "烷": 2108,
      "烹": 2109,
      "焉": 2110,
      "焊": 2111,
      "焕": 2112,
      "焚": 2113,
      "焦": 2114,
      "焰": 2115,
      "然": 2116,
      "煅": 2117,
      "煌": 2118,
      "煎": 2119,
      "煞": 2120,
      "煤": 2121,
      "煦": 2122,
      "照": 2123,
      "煮": 2124,
      "熄": 2125,
      "熊": 2126,
      "熏": 2127,
      "熔": 2128,
      "熙": 2129,
      "熟": 2130,
      "熠": 2131,
      "熨": 2132,
      "熬": 2133,
      "熵": 2134,
      "燃": 2135,
      "燎": 2136,
      "燕": 2137,
      "燥": 2138,
      "爆": 2139,
      "爪": 2140,
      "爬": 2141,
      "爱": 2142,
      "爵": 2143,
      "父": 2144,
      "爷": 2145,
      "爸": 2146,
      "爹": 2147,
      "爽": 2148,
      "片": 2149,
      "版": 2150,
      "牌": 2151,
      "牙": 2152,
      "牛": 2153,
      "牡": 2154,
      "牢": 2155,
      "牧": 2156,
      "物": 2157,
      "牲": 2158,
      "牵": 2159,
      "特": 2160,
      "牺": 2161,
      "犀": 2162,
      "犁": 2163,
      "犄": 2164,
      "犬": 2165,
      "犯": 2166,
      "状": 2167,
      "犷": 2168,
      "犹": 2169,
      "狂": 2170,
      "狄": 2171,
      "狍": 2172,
      "狗": 2173,
      "狙": 2174,
      "狞": 2175,
      "狠": 2176,
      "狡": 2177,
      "狩": 2178,
      "独": 2179,
      "狭": 2180,
      "狱": 2181,
      "狼": 2182,
      "猎": 2183,
      "猖": 2184,
      "猛": 2185,
      "猜": 2186,
      "猝": 2187,
      "猪": 2188,
      "猫": 2189,
      "献": 2190,
      "猾": 2191,
      "猿": 2192,
      "玄": 2193,
      "率": 2194,
      "玉": 2195,
      "王": 2196,
      "玛": 2197,
      "玩": 2198,
      "玫": 2199,
      "环": 2200,
      "现": 2201,
      "玲": 2202,
      "玻": 2203,
      "珂": 2204,
      "珊": 2205,
      "珍": 2206,
      "珑": 2207,
      "珠": 2208,
      "珥": 2209,
      "班": 2210,
      "球": 2211,
      "理": 2212,
      "琐": 2213,
      "琳": 2214,
      "琴": 2215,
      "琼": 2216,
      "瑕": 2217,
      "瑞": 2218,
      "瑟": 2219,
      "瑰": 2220,
      "瑶": 2221,
      "璀": 2222,
      "璃": 2223,
      "璧": 2224,
      "璨": 2225,
      "瓜": 2226,
      "瓢": 2227,
      "瓣": 2228,
      "瓦": 2229,
      "瓮": 2230,
      "瓶": 2231,
      "瓷": 2232,
      "甄": 2233,
      "甚": 2234,
      "甜": 2235,
      "生": 2236,
      "用": 2237,
      "甩": 2238,
      "甭": 2239,
      "田": 2240,
      "由": 2241,
      "甲": 2242,
      "申": 2243,
      "电": 2244,
      "男": 2245,
      "甸": 2246,
      "画": 2247,
      "畅": 2248,
      "界": 2249,
      "畏": 2250,
      "畔": 2251,
      "留": 2252,
      "畜": 2253,
      "略": 2254,
      "番": 2255,
      "畴": 2256,
      "畸": 2257,
      "疆": 2258,
      "疏": 2259,
      "疑": 2260,
      "疗": 2261,
      "疙": 2262,
      "疚": 2263,
      "疫": 2264,
      "疯": 2265,
      "疲": 2266,
      "疵": 2267,
      "疼": 2268,
      "疾": 2269,
      "病": 2270,
      "症": 2271,
      "痉": 2272,
      "痊": 2273,
      "痒": 2274,
      "痕": 2275,
      "痛": 2276,
      "痪": 2277,
      "痴": 2278,
      "痹": 2279,
      "瘁": 2280,
      "瘙": 2281,
      "瘠": 2282,
      "瘤": 2283,
      "瘦": 2284,
      "瘩": 2285,
      "瘪": 2286,
      "瘫": 2287,
      "瘴": 2288,
      "瘸": 2289,
      "瘾": 2290,
      "癌": 2291,
      "癖": 2292,
      "癫": 2293,
      "登": 2294,
      "白": 2295,
      "百": 2296,
      "皂": 2297,
      "的": 2298,
      "皆": 2299,
      "皇": 2300,
      "皈": 2301,
      "皑": 2302,
      "皓": 2303,
      "皙": 2304,
      "皮": 2305,
      "皱": 2306,
      "皲": 2307,
      "盆": 2308,
      "盈": 2309,
      "益": 2310,
      "盎": 2311,
      "盏": 2312,
      "监": 2313,
      "盒": 2314,
      "盔": 2315,
      "盖": 2316,
      "盗": 2317,
      "盘": 2318,
      "盛": 2319,
      "盟": 2320,
      "盥": 2321,
      "目": 2322,
      "盯": 2323,
      "盲": 2324,
      "直": 2325,
      "相": 2326,
      "盹": 2327,
      "盼": 2328,
      "盾": 2329,
      "省": 2330,
      "眉": 2331,
      "看": 2332,
      "真": 2333,
      "眠": 2334,
      "眨": 2335,
      "眩": 2336,
      "眯": 2337,
      "眶": 2338,
      "眷": 2339,
      "眸": 2340,
      "眺": 2341,
      "眼": 2342,
      "着": 2343,
      "睁": 2344,
      "睑": 2345,
      "睛": 2346,
      "睡": 2347,
      "督": 2348,
      "睦": 2349,
      "睫": 2350,
      "睬": 2351,
      "睹": 2352,
      "睽": 2353,
      "睿": 2354,
      "瞄": 2355,
      "瞌": 2356,
      "瞎": 2357,
      "瞒": 2358,
      "瞟": 2359,
      "瞥": 2360,
      "瞧": 2361,
      "瞩": 2362,
      "瞪": 2363,
      "瞬": 2364,
      "瞰": 2365,
      "瞳": 2366,
      "瞻": 2367,
      "矗": 2368,
      "矛": 2369,
      "矢": 2370,
      "矣": 2371,
      "知": 2372,
      "矩": 2373,
      "矫": 2374,
      "短": 2375,
      "矮": 2376,
      "石": 2377,
      "矶": 2378,
      "矿": 2379,
      "码": 2380,
      "砂": 2381,
      "砌": 2382,
      "砍": 2383,
      "研": 2384,
      "砖": 2385,
      "砰": 2386,
      "破": 2387,
      "砸": 2388,
      "砺": 2389,
      "砾": 2390,
      "础": 2391,
      "硅": 2392,
      "硕": 2393,
      "硝": 2394,
      "硫": 2395,
      "硬": 2396,
      "确": 2397,
      "硼": 2398,
      "碌": 2399,
      "碍": 2400,
      "碎": 2401,
      "碑": 2402,
      "碗": 2403,
      "碘": 2404,
      "碟": 2405,
      "碧": 2406,
      "碰": 2407,
      "碱": 2408,
      "碳": 2409,
      "碴": 2410,
      "碾": 2411,
      "磁": 2412,
      "磅": 2413,
      "磋": 2414,
      "磐": 2415,
      "磕": 2416,
      "磨": 2417,
      "磷": 2418,
      "磺": 2419,
      "礁": 2420,
      "礴": 2421,
      "示": 2422,
      "礼": 2423,
      "社": 2424,
      "祀": 2425,
      "祁": 2426,
      "祈": 2427,
      "祖": 2428,
      "祗": 2429,
      "祛": 2430,
      "祝": 2431,
      "神": 2432,
      "祟": 2433,
      "祠": 2434,
      "祥": 2435,
      "票": 2436,
      "祭": 2437,
      "祷": 2438,
      "祸": 2439,
      "禁": 2440,
      "福": 2441,
      "离": 2442,
      "禽": 2443,
      "禾": 2444,
      "秀": 2445,
      "私": 2446,
      "秃": 2447,
      "秆": 2448,
      "秉": 2449,
      "秋": 2450,
      "种": 2451,
      "科": 2452,
      "秒": 2453,
      "秘": 2454,
      "租": 2455,
      "秤": 2456,
      "秦": 2457,
      "秩": 2458,
      "积": 2459,
      "称": 2460,
      "秸": 2461,
      "移": 2462,
      "稀": 2463,
      "程": 2464,
      "稍": 2465,
      "税": 2466,
      "稚": 2467,
      "稠": 2468,
      "稣": 2469,
      "稳": 2470,
      "稻": 2471,
      "稼": 2472,
      "稽": 2473,
      "稿": 2474,
      "穆": 2475,
      "穗": 2476,
      "穴": 2477,
      "究": 2478,
      "穷": 2479,
      "穹": 2480,
      "空": 2481,
      "穿": 2482,
      "突": 2483,
      "窃": 2484,
      "窄": 2485,
      "窑": 2486,
      "窒": 2487,
      "窖": 2488,
      "窗": 2489,
      "窘": 2490,
      "窜": 2491,
      "窝": 2492,
      "窟": 2493,
      "窥": 2494,
      "窿": 2495,
      "立": 2496,
      "竖": 2497,
      "站": 2498,
      "竞": 2499,
      "竟": 2500,
      "章": 2501,
      "童": 2502,
      "竭": 2503,
      "端": 2504,
      "竹": 2505,
      "竺": 2506,
      "竿": 2507,
      "笑": 2508,
      "笔": 2509,
      "笛": 2510,
      "符": 2511,
      "笨": 2512,
      "第": 2513,
      "笼": 2514,
      "等": 2515,
      "筋": 2516,
      "筐": 2517,
      "筑": 2518,
      "筒": 2519,
      "答": 2520,
      "策": 2521,
      "筛": 2522,
      "筝": 2523,
      "筹": 2524,
      "签": 2525,
      "简": 2526,
      "箍": 2527,
      "箔": 2528,
      "算": 2529,
      "管": 2530,
      "箭": 2531,
      "箱": 2532,
      "篆": 2533,
      "篇": 2534,
      "篝": 2535,
      "篡": 2536,
      "篮": 2537,
      "篷": 2538,
      "簇": 2539,
      "簧": 2540,
      "簸": 2541,
      "簿": 2542,
      "籁": 2543,
      "籍": 2544,
      "米": 2545,
      "类": 2546,
      "粉": 2547,
      "粒": 2548,
      "粗": 2549,
      "粘": 2550,
      "粥": 2551,
      "粪": 2552,
      "粮": 2553,
      "粱": 2554,
      "粹": 2555,
      "粼": 2556,
      "精": 2557,
      "糊": 2558,
      "糕": 2559,
      "糖": 2560,
      "糙": 2561,
      "糟": 2562,
      "系": 2563,
      "紊": 2564,
      "素": 2565,
      "索": 2566,
      "紧": 2567,
      "紫": 2568,
      "累": 2569,
      "繁": 2570,
      "纂": 2571,
      "纠": 2572,
      "红": 2573,
      "纣": 2574,
      "纤": 2575,
      "约": 2576,
      "级": 2577,
      "纪": 2578,
      "纬": 2579,
      "纭": 2580,
      "纯": 2581,
      "纰": 2582,
      "纱": 2583,
      "纲": 2584,
      "纳": 2585,
      "纵": 2586,
      "纷": 2587,
      "纸": 2588,
      "纹": 2589,
      "纺": 2590,
      "纽": 2591,
      "线": 2592,
      "练": 2593,
      "组": 2594,
      "绅": 2595,
      "细": 2596,
      "织": 2597,
      "终": 2598,
      "绊": 2599,
      "绍": 2600,
      "绎": 2601,
      "经": 2602,
      "绑": 2603,
      "绒": 2604,
      "结": 2605,
      "绕": 2606,
      "绘": 2607,
      "给": 2608,
      "绚": 2609,
      "络": 2610,
      "绝": 2611,
      "绞": 2612,
      "统": 2613,
      "绢": 2614,
      "绣": 2615,
      "继": 2616,
      "绩": 2617,
      "绪": 2618,
      "续": 2619,
      "绰": 2620,
      "绳": 2621,
      "维": 2622,
      "绵": 2623,
      "绷": 2624,
      "绸": 2625,
      "综": 2626,
      "绽": 2627,
      "绿": 2628,
      "缀": 2629,
      "缄": 2630,
      "缅": 2631,
      "缆": 2632,
      "缎": 2633,
      "缓": 2634,
      "缕": 2635,
      "编": 2636,
      "缘": 2637,
      "缚": 2638,
      "缜": 2639,
      "缝": 2640,
      "缠": 2641,
      "缤": 2642,
      "缩": 2643,
      "缭": 2644,
      "缰": 2645,
      "缴": 2646,
      "缸": 2647,
      "缺": 2648,
      "罐": 2649,
      "网": 2650,
      "罔": 2651,
      "罕": 2652,
      "罗": 2653,
      "罚": 2654,
      "罢": 2655,
      "罩": 2656,
      "罪": 2657,
      "置": 2658,
      "署": 2659,
      "羁": 2660,
      "羊": 2661,
      "美": 2662,
      "羔": 2663,
      "羞": 2664,
      "羟": 2665,
      "羡": 2666,
      "群": 2667,
      "羲": 2668,
      "羸": 2669,
      "羽": 2670,
      "翁": 2671,
      "翅": 2672,
      "翔": 2673,
      "翘": 2674,
      "翠": 2675,
      "翩": 2676,
      "翰": 2677,
      "翻": 2678,
      "翼": 2679,
      "耀": 2680,
      "老": 2681,
      "考": 2682,
      "者": 2683,
      "而": 2684,
      "耍": 2685,
      "耐": 2686,
      "耕": 2687,
      "耗": 2688,
      "耙": 2689,
      "耳": 2690,
      "耶": 2691,
      "耸": 2692,
      "耻": 2693,
      "耽": 2694,
      "耿": 2695,
      "聂": 2696,
      "聆": 2697,
      "聊": 2698,
      "聋": 2699,
      "职": 2700,
      "联": 2701,
      "聚": 2702,
      "聪": 2703,
      "肃": 2704,
      "肆": 2705,
      "肉": 2706,
      "肋": 2707,
      "肌": 2708,
      "肖": 2709,
      "肘": 2710,
      "肚": 2711,
      "肝": 2712,
      "肠": 2713,
      "股": 2714,
      "肢": 2715,
      "肤": 2716,
      "肥": 2717,
      "肩": 2718,
      "肮": 2719,
      "肯": 2720,
      "育": 2721,
      "肴": 2722,
      "肺": 2723,
      "肾": 2724,
      "肿": 2725,
      "胀": 2726,
      "胁": 2727,
      "胃": 2728,
      "胆": 2729,
      "背": 2730,
      "胎": 2731,
      "胖": 2732,
      "胚": 2733,
      "胜": 2734,
      "胞": 2735,
      "胡": 2736,
      "胧": 2737,
      "胫": 2738,
      "胯": 2739,
      "胰": 2740,
      "胳": 2741,
      "胴": 2742,
      "胶": 2743,
      "胸": 2744,
      "能": 2745,
      "脂": 2746,
      "脆": 2747,
      "脉": 2748,
      "脊": 2749,
      "脏": 2750,
      "脐": 2751,
      "脑": 2752,
      "脖": 2753,
      "脚": 2754,
      "脯": 2755,
      "脱": 2756,
      "脸": 2757,
      "脾": 2758,
      "腈": 2759,
      "腊": 2760,
      "腋": 2761,
      "腐": 2762,
      "腔": 2763,
      "腕": 2764,
      "腥": 2765,
      "腰": 2766,
      "腹": 2767,
      "腺": 2768,
      "腻": 2769,
      "腾": 2770,
      "腿": 2771,
      "膀": 2772,
      "膊": 2773,
      "膏": 2774,
      "膘": 2775,
      "膛": 2776,
      "膜": 2777,
      "膝": 2778,
      "膨": 2779,
      "臂": 2780,
      "臆": 2781,
      "臣": 2782,
      "自": 2783,
      "臭": 2784,
      "至": 2785,
      "致": 2786,
      "臼": 2787,
      "舀": 2788,
      "舆": 2789,
      "舌": 2790,
      "舍": 2791,
      "舒": 2792,
      "舔": 2793,
      "舞": 2794,
      "舟": 2795,
      "舢": 2796,
      "航": 2797,
      "般": 2798,
      "舰": 2799,
      "舱": 2800,
      "舵": 2801,
      "舶": 2802,
      "舷": 2803,
      "船": 2804,
      "艇": 2805,
      "艘": 2806,
      "良": 2807,
      "艰": 2808,
      "色": 2809,
      "艳": 2810,
      "艺": 2811,
      "艾": 2812,
      "节": 2813,
      "芎": 2814,
      "芒": 2815,
      "芜": 2816,
      "芝": 2817,
      "芥": 2818,
      "芦": 2819,
      "芬": 2820,
      "芭": 2821,
      "芯": 2822,
      "花": 2823,
      "芳": 2824,
      "芽": 2825,
      "苇": 2826,
      "苍": 2827,
      "苏": 2828,
      "苗": 2829,
      "苛": 2830,
      "苟": 2831,
      "若": 2832,
      "苦": 2833,
      "英": 2834,
      "苹": 2835,
      "茂": 2836,
      "范": 2837,
      "茄": 2838,
      "茅": 2839,
      "茨": 2840,
      "茫": 2841,
      "茬": 2842,
      "茶": 2843,
      "茸": 2844,
      "荆": 2845,
      "草": 2846,
      "荐": 2847,
      "荒": 2848,
      "荡": 2849,
      "荣": 2850,
      "荧": 2851,
      "荫": 2852,
      "药": 2853,
      "荷": 2854,
      "莎": 2855,
      "莞": 2856,
      "莫": 2857,
      "莱": 2858,
      "莲": 2859,
      "获": 2860,
      "莹": 2861,
      "莺": 2862,
      "莽": 2863,
      "菇": 2864,
      "菌": 2865,
      "菜": 2866,
      "菠": 2867,
      "菩": 2868,
      "菱": 2869,
      "菲": 2870,
      "萄": 2871,
      "萌": 2872,
      "萎": 2873,
      "萤": 2874,
      "营": 2875,
      "萦": 2876,
      "萧": 2877,
      "萨": 2878,
      "落": 2879,
      "著": 2880,
      "葛": 2881,
      "葡": 2882,
      "董": 2883,
      "葬": 2884,
      "葵": 2885,
      "葺": 2886,
      "蒂": 2887,
      "蒙": 2888,
      "蒜": 2889,
      "蒸": 2890,
      "蓄": 2891,
      "蓉": 2892,
      "蓝": 2893,
      "蓬": 2894,
      "蔑": 2895,
      "蔓": 2896,
      "蔚": 2897,
      "蔡": 2898,
      "蔫": 2899,
      "蔬": 2900,
      "蔼": 2901,
      "蔽": 2902,
      "蕉": 2903,
      "蕴": 2904,
      "蕾": 2905,
      "薄": 2906,
      "薇": 2907,
      "薯": 2908,
      "藉": 2909,
      "藏": 2910,
      "藕": 2911,
      "藤": 2912,
      "藻": 2913,
      "蘑": 2914,
      "蘸": 2915,
      "虎": 2916,
      "虏": 2917,
      "虐": 2918,
      "虑": 2919,
      "虔": 2920,
      "虚": 2921,
      "虫": 2922,
      "虹": 2923,
      "虽": 2924,
      "蚀": 2925,
      "蚁": 2926,
      "蚂": 2927,
      "蚊": 2928,
      "蚓": 2929,
      "蚕": 2930,
      "蚜": 2931,
      "蚪": 2932,
      "蚯": 2933,
      "蛇": 2934,
      "蛋": 2935,
      "蛙": 2936,
      "蛛": 2937,
      "蛟": 2938,
      "蛮": 2939,
      "蛸": 2940,
      "蜂": 2941,
      "蜒": 2942,
      "蜗": 2943,
      "蜘": 2944,
      "蜜": 2945,
      "蜡": 2946,
      "蜷": 2947,
      "蜻": 2948,
      "蜿": 2949,
      "蝇": 2950,
      "蝈": 2951,
      "蝉": 2952,
      "蝌": 2953,
      "蝗": 2954,
      "蝠": 2955,
      "蝴": 2956,
      "蝶": 2957,
      "螂": 2958,
      "融": 2959,
      "螳": 2960,
      "螵": 2961,
      "螺": 2962,
      "蟹": 2963,
      "蟾": 2964,
      "蠕": 2965,
      "蠢": 2966,
      "血": 2967,
      "衅": 2968,
      "行": 2969,
      "衍": 2970,
      "衔": 2971,
      "街": 2972,
      "衡": 2973,
      "衣": 2974,
      "补": 2975,
      "表": 2976,
      "衫": 2977,
      "衬": 2978,
      "衰": 2979,
      "衷": 2980,
      "袄": 2981,
      "袅": 2982,
      "袋": 2983,
      "袍": 2984,
      "袒": 2985,
      "袖": 2986,
      "被": 2987,
      "袭": 2988,
      "裁": 2989,
      "裂": 2990,
      "装": 2991,
      "裔": 2992,
      "裕": 2993,
      "裙": 2994,
      "裤": 2995,
      "裱": 2996,
      "裸": 2997,
      "裹": 2998,
      "褂": 2999,
      "褐": 3000,
      "褒": 3001,
      "褚": 3002,
      "褛": 3003,
      "褥": 3004,
      "褪": 3005,
      "褶": 3006,
      "襟": 3007,
      "西": 3008,
      "要": 3009,
      "覆": 3010,
      "见": 3011,
      "观": 3012,
      "规": 3013,
      "觅": 3014,
      "视": 3015,
      "览": 3016,
      "觉": 3017,
      "觑": 3018,
      "角": 3019,
      "解": 3020,
      "触": 3021,
      "言": 3022,
      "詹": 3023,
      "誉": 3024,
      "誊": 3025,
      "誓": 3026,
      "警": 3027,
      "譬": 3028,
      "计": 3029,
      "订": 3030,
      "认": 3031,
      "讥": 3032,
      "讨": 3033,
      "让": 3034,
      "讪": 3035,
      "训": 3036,
      "议": 3037,
      "讯": 3038,
      "记": 3039,
      "讲": 3040,
      "讳": 3041,
      "讶": 3042,
      "许": 3043,
      "论": 3044,
      "讼": 3045,
      "讽": 3046,
      "设": 3047,
      "访": 3048,
      "证": 3049,
      "评": 3050,
      "诅": 3051,
      "识": 3052,
      "诈": 3053,
      "诉": 3054,
      "诊": 3055,
      "词": 3056,
      "诏": 3057,
      "译": 3058,
      "试": 3059,
      "诗": 3060,
      "诚": 3061,
      "诛": 3062,
      "话": 3063,
      "诞": 3064,
      "诠": 3065,
      "诡": 3066,
      "询": 3067,
      "诣": 3068,
      "该": 3069,
      "详": 3070,
      "诧": 3071,
      "诫": 3072,
      "诬": 3073,
      "语": 3074,
      "误": 3075,
      "诱": 3076,
      "诲": 3077,
      "说": 3078,
      "诵": 3079,
      "请": 3080,
      "诸": 3081,
      "诺": 3082,
      "读": 3083,
      "课": 3084,
      "谁": 3085,
      "调": 3086,
      "谅": 3087,
      "谈": 3088,
      "谊": 3089,
      "谋": 3090,
      "谍": 3091,
      "谎": 3092,
      "谐": 3093,
      "谑": 3094,
      "谓": 3095,
      "谙": 3096,
      "谜": 3097,
      "谢": 3098,
      "谣": 3099,
      "谦": 3100,
      "谧": 3101,
      "谨": 3102,
      "谩": 3103,
      "谬": 3104,
      "谱": 3105,
      "谴": 3106,
      "谵": 3107,
      "谷": 3108,
      "豁": 3109,
      "豆": 3110,
      "豚": 3111,
      "象": 3112,
      "豪": 3113,
      "豫": 3114,
      "貌": 3115,
      "贝": 3116,
      "贞": 3117,
      "负": 3118,
      "贡": 3119,
      "财": 3120,
      "责": 3121,
      "贤": 3122,
      "败": 3123,
      "账": 3124,
      "货": 3125,
      "质": 3126,
      "贩": 3127,
      "贪": 3128,
      "贫": 3129,
      "购": 3130,
      "贮": 3131,
      "贯": 3132,
      "贱": 3133,
      "贴": 3134,
      "贵": 3135,
      "贸": 3136,
      "费": 3137,
      "贺": 3138,
      "贼": 3139,
      "贾": 3140,
      "资": 3141,
      "赋": 3142,
      "赌": 3143,
      "赎": 3144,
      "赏": 3145,
      "赐": 3146,
      "赔": 3147,
      "赖": 3148,
      "赚": 3149,
      "赛": 3150,
      "赞": 3151,
      "赠": 3152,
      "赢": 3153,
      "赤": 3154,
      "赫": 3155,
      "走": 3156,
      "赴": 3157,
      "赵": 3158,
      "赶": 3159,
      "起": 3160,
      "趁": 3161,
      "超": 3162,
      "越": 3163,
      "趋": 3164,
      "趟": 3165,
      "趣": 3166,
      "足": 3167,
      "趴": 3168,
      "趾": 3169,
      "跃": 3170,
      "跋": 3171,
      "跌": 3172,
      "跑": 3173,
      "跚": 3174,
      "距": 3175,
      "跟": 3176,
      "跨": 3177,
      "跪": 3178,
      "路": 3179,
      "跳": 3180,
      "践": 3181,
      "跺": 3182,
      "踊": 3183,
      "踌": 3184,
      "踏": 3185,
      "踢": 3186,
      "踩": 3187,
      "踪": 3188,
      "踱": 3189,
      "踵": 3190,
      "踹": 3191,
      "蹄": 3192,
      "蹈": 3193,
      "蹒": 3194,
      "蹦": 3195,
      "蹩": 3196,
      "蹬": 3197,
      "蹭": 3198,
      "蹲": 3199,
      "蹾": 3200,
      "蹿": 3201,
      "躁": 3202,
      "身": 3203,
      "躬": 3204,
      "躯": 3205,
      "躲": 3206,
      "躺": 3207,
      "车": 3208,
      "轧": 3209,
      "轨": 3210,
      "轩": 3211,
      "转": 3212,
      "轭": 3213,
      "轮": 3214,
      "软": 3215,
      "轰": 3216,
      "轴": 3217,
      "轶": 3218,
      "轻": 3219,
      "载": 3220,
      "轿": 3221,
      "较": 3222,
      "辄": 3223,
      "辅": 3224,
      "辆": 3225,
      "辈": 3226,
      "辉": 3227,
      "辐": 3228,
      "辑": 3229,
      "输": 3230,
      "辖": 3231,
      "辘": 3232,
      "辙": 3233,
      "辛": 3234,
      "辜": 3235,
      "辞": 3236,
      "辟": 3237,
      "辣": 3238,
      "辨": 3239,
      "辩": 3240,
      "辫": 3241,
      "辰": 3242,
      "辱": 3243,
      "边": 3244,
      "辽": 3245,
      "达": 3246,
      "迁": 3247,
      "迂": 3248,
      "迄": 3249,
      "迅": 3250,
      "过": 3251,
      "迈": 3252,
      "迎": 3253,
      "运": 3254,
      "近": 3255,
      "返": 3256,
      "还": 3257,
      "这": 3258,
      "进": 3259,
      "远": 3260,
      "违": 3261,
      "连": 3262,
      "迟": 3263,
      "迢": 3264,
      "迥": 3265,
      "迪": 3266,
      "迫": 3267,
      "述": 3268,
      "迷": 3269,
      "迸": 3270,
      "迹": 3271,
      "追": 3272,
      "退": 3273,
      "送": 3274,
      "适": 3275,
      "逃": 3276,
      "逆": 3277,
      "选": 3278,
      "逊": 3279,
      "逍": 3280,
      "透": 3281,
      "逐": 3282,
      "递": 3283,
      "途": 3284,
      "逗": 3285,
      "通": 3286,
      "逛": 3287,
      "逝": 3288,
      "速": 3289,
      "造": 3290,
      "逢": 3291,
      "逮": 3292,
      "逸": 3293,
      "逻": 3294,
      "逼": 3295,
      "逾": 3296,
      "遁": 3297,
      "遂": 3298,
      "遇": 3299,
      "遍": 3300,
      "遏": 3301,
      "道": 3302,
      "遗": 3303,
      "遛": 3304,
      "遣": 3305,
      "遥": 3306,
      "遭": 3307,
      "遮": 3308,
      "遴": 3309,
      "遵": 3310,
      "避": 3311,
      "邀": 3312,
      "邃": 3313,
      "邑": 3314,
      "邓": 3315,
      "那": 3316,
      "邦": 3317,
      "邪": 3318,
      "邮": 3319,
      "邯": 3320,
      "邵": 3321,
      "邸": 3322,
      "邻": 3323,
      "郁": 3324,
      "郊": 3325,
      "郎": 3326,
      "郑": 3327,
      "郝": 3328,
      "郡": 3329,
      "部": 3330,
      "郭": 3331,
      "都": 3332,
      "鄙": 3333,
      "鄢": 3334,
      "酌": 3335,
      "配": 3336,
      "酒": 3337,
      "酝": 3338,
      "酣": 3339,
      "酪": 3340,
      "酱": 3341,
      "酷": 3342,
      "酸": 3343,
      "酿": 3344,
      "醉": 3345,
      "醋": 3346,
      "醒": 3347,
      "醛": 3348,
      "采": 3349,
      "释": 3350,
      "里": 3351,
      "重": 3352,
      "野": 3353,
      "量": 3354,
      "金": 3355,
      "鉴": 3356,
      "鑫": 3357,
      "针": 3358,
      "钉": 3359,
      "钓": 3360,
      "钛": 3361,
      "钝": 3362,
      "钟": 3363,
      "钢": 3364,
      "钥": 3365,
      "钦": 3366,
      "钧": 3367,
      "钩": 3368,
      "钮": 3369,
      "钱": 3370,
      "钳": 3371,
      "钴": 3372,
      "钻": 3373,
      "钾": 3374,
      "铁": 3375,
      "铃": 3376,
      "铅": 3377,
      "铆": 3378,
      "铐": 3379,
      "铛": 3380,
      "铜": 3381,
      "铝": 3382,
      "铠": 3383,
      "铭": 3384,
      "铰": 3385,
      "银": 3386,
      "铸": 3387,
      "铺": 3388,
      "链": 3389,
      "销": 3390,
      "锁": 3391,
      "锄": 3392,
      "锅": 3393,
      "锈": 3394,
      "锋": 3395,
      "锌": 3396,
      "锐": 3397,
      "错": 3398,
      "锚": 3399,
      "锡": 3400,
      "锢": 3401,
      "锣": 3402,
      "锤": 3403,
      "锥": 3404,
      "锨": 3405,
      "键": 3406,
      "锯": 3407,
      "锰": 3408,
      "锵": 3409,
      "锹": 3410,
      "镀": 3411,
      "镂": 3412,
      "镇": 3413,
      "镊": 3414,
      "镌": 3415,
      "镍": 3416,
      "镙": 3417,
      "镜": 3418,
      "镝": 3419,
      "镣": 3420,
      "镪": 3421,
      "镰": 3422,
      "镶": 3423,
      "长": 3424,
      "门": 3425,
      "闪": 3426,
      "闭": 3427,
      "问": 3428,
      "闯": 3429,
      "闰": 3430,
      "闲": 3431,
      "间": 3432,
      "闷": 3433,
      "闸": 3434,
      "闹": 3435,
      "闺": 3436,
      "闻": 3437,
      "阁": 3438,
      "阂": 3439,
      "阅": 3440,
      "阈": 3441,
      "阐": 3442,
      "阔": 3443,
      "阙": 3444,
      "阜": 3445,
      "队": 3446,
      "阡": 3447,
      "阮": 3448,
      "阱": 3449,
      "防": 3450,
      "阳": 3451,
      "阴": 3452,
      "阵": 3453,
      "阶": 3454,
      "阻": 3455,
      "阿": 3456,
      "附": 3457,
      "际": 3458,
      "陆": 3459,
      "陇": 3460,
      "陈": 3461,
      "陋": 3462,
      "陌": 3463,
      "降": 3464,
      "限": 3465,
      "陕": 3466,
      "陛": 3467,
      "陡": 3468,
      "院": 3469,
      "除": 3470,
      "陨": 3471,
      "险": 3472,
      "陪": 3473,
      "陵": 3474,
      "陶": 3475,
      "陷": 3476,
      "隅": 3477,
      "隆": 3478,
      "隋": 3479,
      "随": 3480,
      "隐": 3481,
      "隔": 3482,
      "隙": 3483,
      "障": 3484,
      "隧": 3485,
      "隶": 3486,
      "难": 3487,
      "雀": 3488,
      "雁": 3489,
      "雄": 3490,
      "雅": 3491,
      "集": 3492,
      "雇": 3493,
      "雏": 3494,
      "雕": 3495,
      "雨": 3496,
      "雩": 3497,
      "雪": 3498,
      "雯": 3499,
      "雳": 3500,
      "零": 3501,
      "雷": 3502,
      "雹": 3503,
      "雾": 3504,
      "需": 3505,
      "霄": 3506,
      "霆": 3507,
      "震": 3508,
      "霉": 3509,
      "霍": 3510,
      "霎": 3511,
      "霏": 3512,
      "霓": 3513,
      "霖": 3514,
      "霜": 3515,
      "霞": 3516,
      "霭": 3517,
      "露": 3518,
      "霸": 3519,
      "霹": 3520,
      "霾": 3521,
      "青": 3522,
      "靓": 3523,
      "静": 3524,
      "非": 3525,
      "靠": 3526,
      "面": 3527,
      "革": 3528,
      "靴": 3529,
      "靶": 3530,
      "鞋": 3531,
      "鞍": 3532,
      "鞘": 3533,
      "鞠": 3534,
      "鞭": 3535,
      "韦": 3536,
      "韧": 3537,
      "韩": 3538,
      "音": 3539,
      "韵": 3540,
      "页": 3541,
      "顶": 3542,
      "顷": 3543,
      "项": 3544,
      "顺": 3545,
      "须": 3546,
      "顽": 3547,
      "顾": 3548,
      "顿": 3549,
      "颀": 3550,
      "颁": 3551,
      "颂": 3552,
      "预": 3553,
      "颅": 3554,
      "领": 3555,
      "颇": 3556,
      "颈": 3557,
      "颊": 3558,
      "颐": 3559,
      "频": 3560,
      "颓": 3561,
      "颔": 3562,
      "颖": 3563,
      "颗": 3564,
      "题": 3565,
      "颚": 3566,
      "颜": 3567,
      "额": 3568,
      "颠": 3569,
      "颤": 3570,
      "风": 3571,
      "飒": 3572,
      "飓": 3573,
      "飘": 3574,
      "飙": 3575,
      "飚": 3576,
      "飞": 3577,
      "食": 3578,
      "餐": 3579,
      "餮": 3580,
      "饕": 3581,
      "饥": 3582,
      "饪": 3583,
      "饭": 3584,
      "饮": 3585,
      "饰": 3586,
      "饱": 3587,
      "饵": 3588,
      "饶": 3589,
      "饺": 3590,
      "饼": 3591,
      "饿": 3592,
      "馅": 3593,
      "馆": 3594,
      "馈": 3595,
      "馋": 3596,
      "馒": 3597,
      "首": 3598,
      "香": 3599,
      "馨": 3600,
      "马": 3601,
      "驭": 3602,
      "驮": 3603,
      "驰": 3604,
      "驱": 3605,
      "驳": 3606,
      "驴": 3607,
      "驶": 3608,
      "驹": 3609,
      "驻": 3610,
      "驼": 3611,
      "驾": 3612,
      "骂": 3613,
      "骄": 3614,
      "骇": 3615,
      "骋": 3616,
      "验": 3617,
      "骏": 3618,
      "骑": 3619,
      "骗": 3620,
      "骚": 3621,
      "骡": 3622,
      "骤": 3623,
      "骨": 3624,
      "骷": 3625,
      "骸": 3626,
      "骼": 3627,
      "髂": 3628,
      "髅": 3629,
      "髓": 3630,
      "高": 3631,
      "髟": 3632,
      "髻": 3633,
      "鬈": 3634,
      "鬼": 3635,
      "魁": 3636,
      "魂": 3637,
      "魄": 3638,
      "魅": 3639,
      "魏": 3640,
      "魔": 3641,
      "鱼": 3642,
      "鱿": 3643,
      "鲁": 3644,
      "鲍": 3645,
      "鲜": 3646,
      "鲸": 3647,
      "鳍": 3648,
      "鳞": 3649,
      "鸟": 3650,
      "鸡": 3651,
      "鸣": 3652,
      "鸦": 3653,
      "鸭": 3654,
      "鸽": 3655,
      "鸿": 3656,
      "鹅": 3657,
      "鹊": 3658,
      "鹏": 3659,
      "鹜": 3660,
      "鹤": 3661,
      "鹰": 3662,
      "鹿": 3663,
      "麦": 3664,
      "麻": 3665,
      "黄": 3666,
      "黎": 3667,
      "黏": 3668,
      "黑": 3669,
      "黔": 3670,
      "默": 3671,
      "黝": 3672,
      "黯": 3673,
      "鼍": 3674,
      "鼎": 3675,
      "鼓": 3676,
      "鼠": 3677,
      "鼻": 3678,
      "鼾": 3679,
      "齐": 3680,
      "齿": 3681,
      "龄": 3682,
      "龙": 3683,
      "龟": 3684,
      "！": 3685,
      "（": 3686,
      "）": 3687,
      "，": 3688,
      "－": 3689,
      "．": 3690,
      "／": 3691,
      "：": 3692,
      "；": 3693,
      "？": 3694,
      "～": 3695,
      "##立": 3696,
      "##刻": 3697,
      "##报": 3698,
      "##告": 3699,
      "##。": 3700,
      "##”": 3701,
      "##威": 3702,
      "##纳": 3703,
      "##尔": 3704,
      "##说": 3705,
      "##罗": 3706,
      "##辑": 3707,
      "##所": 3708,
      "##乘": 3709,
      "##的": 3710,
      "##飞": 3711,
      "##机": 3712,
      "##越": 3713,
      "##海": 3714,
      "##岸": 3715,
      "##时": 3716,
      "##，": 3717,
      "##在": 3718,
      "##他": 3719,
      "##一": 3720,
      "##万": 3721,
      "##米": 3722,
      "##下": 3723,
      "##方": 3724,
      "##吴": 3725,
      "##岳": 3726,
      "##和": 3727,
      "##章": 3728,
      "##北": 3729,
      "##再": 3730,
      "##次": 3731,
      "##注": 3732,
      "##视": 3733,
      "##着": 3734,
      "##建": 3735,
      "##造": 3736,
      "##中": 3737,
      "##“": 3738,
      "##唐": 3739,
      "##号": 3740,
      "##以": 3741,
      "##前": 3742,
      "##后": 3743,
      "##有": 3744,
      "##间": 3745,
      "##里": 3746,
      "##这": 3747,
      "##是": 3748,
      "##距": 3749,
      "##两": 3750,
      "##位": 3751,
      "##军": 3752,
      "##人": 3753,
      "##最": 3754,
      "##近": 3755,
      "##到": 3756,
      "##声": 3757,
      "##音": 3758,
      "##程": 3759,
      "##心": 3760,
      "##抬": 3761,
      "##起": 3762,
      "##头": 3763,
      "##来": 3764,
      "##看": 3765,
      "##老": 3766,
      "##并": 3767,
      "##没": 3768,
      "##《": 3769,
      "##蒙": 3770,
      "##娜": 3771,
      "##丽": 3772,
      "##莎": 3773,
      "##》": 3774,
      "##双": 3775,
      "##眼": 3776,
      "##平": 3777,
      "##像": 3778,
      "##光": 3779,
      "##深": 3780,
      "##处": 3781,
      "##不": 3782,
      "##知": 3783,
      "##错": 3784,
      "##觉": 3785,
      "##竟": 3786,
      "##那": 3787,
      "##守": 3788,
      "##护": 3789,
      "##个": 3790,
      "##比": 3791,
      "##更": 3792,
      "##糟": 3793,
      "##印": 3794,
      "##象": 3795,
      "##宇": 3796,
      "##宙": 3797,
      "##只": 3798,
      "##过": 3799,
      "##具": 3800,
      "##膨": 3801,
      "##胀": 3802,
      "##死": 3803,
      "##尸": 3804,
      "##1": 3805,
      "##基": 3806,
      "##地": 3807,
      "##直": 3808,
      "##等": 3809,
      "##待": 3810,
      "##会": 3811,
      "##现": 3812,
      "##出": 3813,
      "##了": 3814,
      "##：": 3815,
      "##航": 3816,
      "##天": 3817,
      "##系": 3818,
      "##统": 3819,
      "##黄": 3820,
      "##河": 3821,
      "##站": 3822,
      "##召": 3823,
      "##开": 3824,
      "##高": 3825,
      "##层": 3826,
      "##工": 3827,
      "##作": 3828,
      "##议": 3829,
      "##要": 3830,
      "##消": 3831,
      "##灭": 3832,
      "##三": 3833,
      "##目": 3834,
      "##标": 3835,
      "##都": 3836,
      "##与": 3837,
      "##者": 3838,
      "##空": 3839,
      "##投": 3840,
      "##入": 3841,
      "##使": 3842,
      "##用": 3843,
      "##许": 3844,
      "##多": 3845,
      "##其": 3846,
      "##好": 3847,
      "##弥": 3848,
      "##补": 3849,
      "##从": 3850,
      "##事": 3851,
      "##业": 3852,
      "##大": 3853,
      "##进": 3854,
      "##太": 3855,
      "##遗": 3856,
      "##憾": 3857,
      "##渗": 3858,
      "##透": 3859,
      "##厨": 3860,
      "##房": 3861,
      "##！": 3862,
      "##话": 3863,
      "##引": 3864,
      "##几": 3865,
      "##轻": 3866,
      "##笑": 3867,
      "##测": 3868,
      "##器": 3869,
      "##小": 3870,
      "##预": 3871,
      "##想": 3872,
      "##差": 3873,
      "##长": 3874,
      "##点": 3875,
      "##五": 3876,
      "##丁": 3877,
      "##仪": 3878,
      "##它": 3879,
      "##产": 3880,
      "##生": 3881,
      "##样": 3882,
      "##滴": 3883,
      "##水": 3884,
      "##银": 3885,
      "##探": 3886,
      "##呈": 3887,
      "##完": 3888,
      "##美": 3889,
      "##形": 3890,
      "##状": 3891,
      "##部": 3892,
      "##浑": 3893,
      "##圆": 3894,
      "##尾": 3895,
      "##很": 3896,
      "##尖": 3897,
      "##表": 3898,
      "##面": 3899,
      "##极": 3900,
      "##滑": 3901,
      "##全": 3902,
      "##反": 3903,
      "##射": 3904,
      "##镜": 3905,
      "##映": 3906,
      "##成": 3907,
      "##片": 3908,
      "##流": 3909,
      "##畅": 3910,
      "##纹": 3911,
      "##得": 3912,
      "##上": 3913,
      "##去": 3914,
      "##纯": 3915,
      "##洁": 3916,
      "##而": 3917,
      "##唯": 3918,
      "##液": 3919,
      "##外": 3920,
      "##么": 3921,
      "##栩": 3922,
      "##如": 3923,
      "##至": 3924,
      "##于": 3925,
      "##观": 3926,
      "##察": 3927,
      "##真": 3928,
      "##为": 3929,
      "##就": 3930,
      "##态": 3931,
      "##根": 3932,
      "##本": 3933,
      "##可": 3934,
      "##能": 3935,
      "##内": 3936,
      "##械": 3937,
      "##结": 3938,
      "##构": 3939,
      "##黑": 3940,
      "##域": 3941,
      "##星": 3942,
      "##还": 3943,
      "##见": 3944,
      "##唉": 3945,
      "##谁": 3946,
      "##什": 3947,
      "##子": 3948,
      "##实": 3949,
      "##够": 3950,
      "##每": 3951,
      "##舱": 3952,
      "##室": 3953,
      "##也": 3954,
      "##封": 3955,
      "##闭": 3956,
      "##容": 3957,
      "##；": 3958,
      "##体": 3959,
      "##综": 3960,
      "##复": 3961,
      "##杂": 3962,
      "##管": 3963,
      "##道": 3964,
      "##动": 3965,
      "##舰": 3966,
      "##核": 3967,
      "##应": 3968,
      "##堆": 3969,
      "##聚": 3970,
      "##变": 3971,
      "##火": 3972,
      "##维": 3973,
      "##德": 3974,
      "##巨": 3975,
      "##对": 3976,
      "##冷": 3977,
      "##酷": 3978,
      "##锐": 3979,
      "##利": 3980,
      "##带": 3981,
      "##丝": 3982,
      "##嘲": 3983,
      "##讽": 3984,
      "##文": 3985,
      "##斯": 3986,
      "##您": 3987,
      "##让": 3988,
      "##我": 3989,
      "##稍": 3990,
      "##吗": 3991,
      "##强": 3992,
      "##烈": 3993,
      "##厌": 3994,
      "##恶": 3995,
      "##情": 3996,
      "##绪": 3997,
      "##认": 3998,
      "##自": 3999,
      "##掘": 4000,
      "##坟": 4001,
      "##墓": 4002,
      "##虽": 4003,
      "##然": 4004,
      "##们": 4005,
      "##承": 4006,
      "##保": 4007,
      "##证": 4008,
      "##类": 4009,
      "##2": 4010,
      "##5": 4011,
      "##公": 4012,
      "##斤": 4013,
      "##4": 4014,
      "##3": 4015,
      "##晓": 4016,
      "##虹": 4017,
      "##你": 4018,
      "##7": 4019,
      "##延": 4020,
      "##炬": 4021,
      "##少": 4022,
      "##她": 4023,
      "##分": 4024,
      "##明": 4025,
      "##孩": 4026,
      "##干": 4027,
      "##？": 4028,
      "##当": 4029,
      "##智": 4030,
      "##发": 4031,
      "##留": 4032,
      "##意": 4033,
      "##遇": 4034,
      "##9": 4035,
      "##愿": 4036,
      "##望": 4037,
      "##褐": 4038,
      "##蚁": 4039,
      "##继": 4040,
      "##续": 4041,
      "##横": 4042,
      "##行": 4043,
      "##但": 4044,
      "##却": 4045,
      "##槽": 4046,
      "##第": 4047,
      "##放": 4048,
      "##端": 4049,
      "##细": 4050,
      "##洞": 4051,
      "##身": 4052,
      "##改": 4053,
      "##速": 4054,
      "##波": 4055,
      "##命": 4056,
      "##运": 4057,
      "##显": 4058,
      "##示": 4059,
      "##怪": 4060,
      "##异": 4061,
      "##无": 4062,
      "##常": 4063,
      "##准": 4064,
      "##备": 4065,
      "##执": 4066,
      "##剑": 4067,
      "##涯": 4068,
      "##段": 4069,
      "##难": 4070,
      "##判": 4071,
      "##断": 4072,
      "##短": 4073,
      "##失": 4074,
      "##红": 4075,
      "##灯": 4076,
      "##亮": 4077,
      "##倒": 4078,
      "##些": 4079,
      "##战": 4080,
      "##阳": 4081,
      "##武": 4082,
      "##电": 4083,
      "##亚": 4084,
      "##洲": 4085,
      "##队": 4086,
      "##演": 4087,
      "##习": 4088,
      "##新": 4089,
      "##闻": 4090,
      "##激": 4091,
      "##炮": 4092,
      "##母": 4093,
      "##靶": 4094,
      "##船": 4095,
      "##扫": 4096,
      "##铁": 4097,
      "##家": 4098,
      "##伙": 4099,
      "##冰": 4100,
      "##块": 4101,
      "##儿": 4102,
      "##似": 4103,
      "##给": 4104,
      "##蒸": 4105,
      "##半": 4106,
      "##另": 4107,
      "##晶": 4108,
      "##钢": 4109,
      "##炸": 4110,
      "##焰": 4111,
      "##磁": 4112,
      "##秒": 4113,
      "##钟": 4114,
      "##百": 4115,
      "##球": 4116,
      "##足": 4117,
      "##膛": 4118,
      "##度": 4119,
      "##十": 4120,
      "##坚": 4121,
      "##摧": 4122,
      "##座": 4123,
      "##山": 4124,
      "##…": 4125,
      "##尽": 4126,
      "##力": 4127,
      "##气": 4128,
      "##转": 4129,
      "##伞": 4130,
      "##警": 4131,
      "##快": 4132,
      "##风": 4133,
      "##铃": 4134,
      "##又": 4135,
      "##慢": 4136,
      "##鸟": 4137,
      "##叫": 4138,
      "##暗": 4139,
      "##役": 4140,
      "##幸": 4141,
      "##存": 4142,
      "##返": 4143,
      "##蓝": 4144,
      "##色": 4145,
      "##二": 4146,
      "##原": 4147,
      "##艇": 4148,
      "##张": 4149,
      "##整": 4150,
      "##精": 4151,
      "##确": 4152,
      "##图": 4153,
      "##纸": 4154,
      "##筑": 4155,
      "##碎": 4156,
      "##褚": 4157,
      "##岩": 4158,
      "##令": 4159,
      "##回": 4160,
      "##登": 4161,
      "##‘": 4162,
      "##魔": 4163,
      "##戒": 4164,
      "##计": 4165,
      "##划": 4166,
      "##取": 4167,
      "##(": 4168,
      "##)": 4169,
      "##审": 4170,
      "##a": 4171,
      "##找": 4172,
      "##园": 4173,
      "##种": 4174,
      "##仇": 4175,
      "##被": 4176,
      "##森": 4177,
      "##八": 4178,
      "##架": 4179,
      "##穿": 4180,
      "##梭": 4181,
      "##翼": 4182,
      "##滚": 4183,
      "##热": 4184,
      "##浪": 4185,
      "##烟": 4186,
      "##尘": 4187,
      "##群": 4188,
      "##混": 4189,
      "##乱": 4190,
      "##甚": 4191,
      "##神": 4192,
      "##冲": 4193,
      "##击": 4194,
      "##物": 4195,
      "##随": 4196,
      "##把": 4197,
      "##慑": 4198,
      "##控": 4199,
      "##制": 4200,
      "##权": 4201,
      "##移": 4202,
      "##交": 4203,
      "##联": 4204,
      "##合": 4205,
      "##国": 4206,
      "##质": 4207,
      "##效": 4208,
      "##理": 4209,
      "##学": 4210,
      "##概": 4211,
      "##念": 4212,
      "##世": 4213,
      "##界": 4214,
      "##吧": 4215,
      "##险": 4216,
      "##必": 4217,
      "##须": 4218,
      "##冒": 4219,
      "##懂": 4220,
      "##史": 4221,
      "##简": 4222,
      "##单": 4223,
      "##东": 4224,
      "##西": 4225,
      "##听": 4226,
      "##奇": 4227,
      "##初": 4228,
      "##己": 4229,
      "##怎": 4230,
      "##数": 4231,
      "##特": 4232,
      "##别": 4233,
      "##爱": 4234,
      "##走": 4235,
      "##湿": 4236,
      "##咣": 4237,
      "##关": 4238,
      "##门": 4239,
      "##锁": 4240,
      "##帆": 4241,
      "##打": 4242,
      "##金": 4243,
      "##属": 4244,
      "##板": 4245,
      "##志": 4246,
      "##互": 4247,
      "##答": 4248,
      "##操": 4249,
      "##设": 4250,
      "##定": 4251,
      "##导": 4252,
      "##弹": 4253,
      "##手": 4254,
      "##毁": 4255,
      "##功": 4256,
      "##途": 4257,
      "##由": 4258,
      "##步": 4259,
      "##才": 4260,
      "##做": 4261,
      "##选": 4262,
      "##择": 4263,
      "##绝": 4264,
      "##轰": 4265,
      "##鸣": 4266,
      "##落": 4267,
      "##名": 4268,
      "##条": 4269,
      "##之": 4270,
      "##善": 4271,
      "##忘": 4272,
      "##适": 4273,
      "##活": 4274,
      "##静": 4275,
      "##始": 4276,
      "##雇": 4277,
      "##钱": 4278,
      "##树": 4279,
      "##苗": 4280,
      "##花": 4281,
      "##父": 4282,
      "##亲": 4283,
      "##亿": 4284,
      "##富": 4285,
      "##翁": 4286,
      "##跨": 4287,
      "##石": 4288,
      "##油": 4289,
      "##司": 4290,
      "##总": 4291,
      "##裁": 4292,
      "##瓦": 4293,
      "##季": 4294,
      "##姆": 4295,
      "##正": 4296,
      "##靠": 4297,
      "##聪": 4298,
      "##某": 4299,
      "##角": 4300,
      "##责": 4301,
      "##任": 4302,
      "##孤": 4303,
      "##僻": 4304,
      "##莹": 4305,
      "##雪": 4306,
      "##温": 4307,
      "##融": 4308,
      "##化": 4309,
      "##止": 4310,
      "##触": 4311,
      "##即": 4312,
      "##雷": 4313,
      "##持": 4314,
      "##恐": 4315,
      "##怖": 4316,
      "##衡": 4317,
      "##0": 4318,
      "##颗": 4319,
      "##王": 4320,
      "##、": 4321,
      "##土": 4322,
      "##居": 4323,
      "##搬": 4324,
      "##千": 4325,
      "##木": 4326,
      "##阴": 4327,
      "##影": 4328,
      "##壁": 4329,
      "##书": 4330,
      "##充": 4331,
      "##展": 4332,
      "##略": 4333,
      "##谋": 4334,
      "##达": 4335,
      "##附": 4336,
      "##顺": 4337,
      "##翘": 4338,
      "##曲": 4339,
      "##白": 4340,
      "##蓉": 4341,
      "##求": 4342,
      "##底": 4343,
      "##连": 4344,
      "##狡": 4345,
      "##猾": 4346,
      "##犹": 4347,
      "##豫": 4348,
      "##雾": 4349,
      "##约": 4350,
      "##果": 4351,
      "##独": 4352,
      "##接": 4353,
      "##受": 4354,
      "##信": 4355,
      "##息": 4356,
      "##迅": 4357,
      "##扩": 4358,
      "##毫": 4359,
      "##已": 4360,
      "##躁": 4361,
      "##填": 4362,
      "##满": 4363,
      "##呐": 4364,
      "##喊": 4365,
      "##惊": 4366,
      "##哭": 4367,
      "##泣": 4368,
      "##狂": 4369,
      "##该": 4370,
      "##普": 4371,
      "##通": 4372,
      "##社": 4373,
      "##或": 4374,
      "##庭": 4375,
      "##般": 4376,
      "##同": 4377,
      "##感": 4378,
      "##兴": 4379,
      "##趣": 4380,
      "##记": 4381,
      "##往": 4382,
      "##项": 4383,
      "##共": 4384,
      "##防": 4385,
      "##御": 4386,
      "##础": 4387,
      "##研": 4388,
      "##究": 4389,
      "##萨": 4390,
      "##伊": 4391,
      "##解": 4392,
      "##释": 4393,
      "##恒": 4394,
      "##专": 4395,
      "##年": 4396,
      "##沉": 4397,
      "##积": 4398,
      "##窄": 4399,
      "##潜": 4400,
      "##愈": 4401,
      "##识": 4402,
      "##拼": 4403,
      "##浮": 4404,
      "##试": 4405,
      "##枪": 4406,
      "##元": 4407,
      "##纪": 4408,
      "##肯": 4409,
      "##古": 4410,
      "##代": 4411,
      "##经": 4412,
      "##窗": 4413,
      "##口": 4414,
      "##福": 4415,
      "##便": 4416,
      "##拿": 4417,
      "##杯": 4418,
      "##饮": 4419,
      "##咕": 4420,
      "##咚": 4421,
      "##灌": 4422,
      "##抹": 4423,
      "##嘴": 4424,
      "##淼": 4425,
      "##讨": 4426,
      "##论": 4427,
      "##诡": 4428,
      "##远": 4429,
      "##涵": 4430,
      "##参": 4431,
      "##响": 4432,
      "##包": 4433,
      "##括": 4434,
      "##汪": 4435,
      "##易": 4436,
      "##谈": 4437,
      "##相": 4438,
      "##介": 4439,
      "##绍": 4440,
      "##掏": 4441,
      "##致": 4442,
      "##斗": 4443,
      "##装": 4444,
      "##抽": 4445,
      "##踱": 4446,
      "##墙": 4447,
      "##边": 4448,
      "##欣": 4449,
      "##赏": 4450,
      "##画": 4451,
      "##则": 4452,
      "##坐": 4453,
      "##组": 4454,
      "##织": 4455,
      "##早": 4456,
      "##宽": 4457,
      "##敞": 4458,
      "##伸": 4459,
      "##缩": 4460,
      "##栅": 4461,
      "##栏": 4462,
      "##旁": 4463,
      "##矮": 4464,
      "##镶": 4465,
      "##称": 4466,
      "##坪": 4467,
      "##副": 4468,
      "##悠": 4469,
      "##乎": 4470,
      "##城": 4471,
      "##市": 4472,
      "##邦": 4473,
      "##围": 4474,
      "##官": 4475,
      "##量": 4476,
      "##主": 4477,
      "##宰": 4478,
      "##切": 4479,
      "##布": 4480,
      "##伟": 4481,
      "##思": 4482,
      "##默": 4483,
      "##未": 4484,
      "##桌": 4485,
      "##排": 4486,
      "##政": 4487,
      "##治": 4488,
      "##限": 4489,
      "##铅": 4490,
      "##笔": 4491,
      "##顿": 4492,
      "##哒": 4493,
      "##仿": 4494,
      "##佛": 4495,
      "##脚": 4496,
      "##终": 4497,
      "##拉": 4498,
      "##场": 4499,
      "##阵": 4500,
      "##首": 4501,
      "##先": 4502,
      "##扔": 4503,
      "##坦": 4504,
      "##策": 4505,
      "##危": 4506,
      "##义": 4507,
      "##监": 4508,
      "##员": 4509,
      "##除": 4510,
      "##脆": 4511,
      "##弱": 4512,
      "##伯": 4513,
      "##·": 4514,
      "##林": 4515,
      "##格": 4516,
      "##盈": 4517,
      "##泪": 4518,
      "##照": 4519,
      "##突": 4520,
      "##团": 4521,
      "##耀": 4522,
      "##传": 4523,
      "##欢": 4524,
      "##呼": 4525,
      "##贵": 4526,
      "##宾": 4527,
      "##台": 4528,
      "##狗": 4529,
      "##娘": 4530,
      "##养": 4531,
      "##n": 4532,
      "##s": 4533,
      "##资": 4534,
      "##因": 4535,
      "##将": 4536,
      "##向": 4537,
      "##服": 4538,
      "##挺": 4539,
      "##献": 4540,
      "##媚": 4541,
      "##领": 4542,
      "##岗": 4543,
      "##哨": 4544,
      "##隔": 4545,
      "##湖": 4546,
      "##泊": 4547,
      "##牌": 4548,
      "##众": 4549,
      "##夜": 4550,
      "##科": 4551,
      "##推": 4552,
      "##哪": 4553,
      "##侧": 4554,
      "##艘": 4555,
      "##辆": 4556,
      "##巴": 4557,
      "##撂": 4558,
      "##瓶": 4559,
      "##兰": 4560,
      "##脏": 4561,
      "##兮": 4562,
      "##递": 4563,
      "##谢": 4564,
      "##迪": 4565,
      "##兹": 4566,
      "##窃": 4567,
      "##私": 4568,
      "##语": 4569,
      "##问": 4570,
      "##型": 4571,
      "##氢": 4572,
      "##食": 4573,
      "##吃": 4574,
      "##算": 4575,
      "##岛": 4576,
      "##啊": 4577,
      "##咱": 4578,
      "##舒": 4579,
      "##四": 4580,
      "##周": 4581,
      "##环": 4582,
      "##境": 4583,
      "##屠": 4584,
      "##龙": 4585,
      "##术": 4586,
      "##冻": 4587,
      "##’": 4588,
      "##清": 4589,
      "##铜": 4590,
      "##率": 4591,
      "##超": 4592,
      "##际": 4593,
      "##遥": 4594,
      "##逃": 4595,
      "##亡": 4596,
      "##盛": 4597,
      "##覆": 4598,
      "##盖": 4599,
      "##隐": 4600,
      "##浙": 4601,
      "##沥": 4602,
      "##震": 4603,
      "##裂": 4604,
      "##盯": 4605,
      "##歌": 4606,
      "##喜": 4607,
      "##昂": 4608,
      "##暴": 4609,
      "##追": 4610,
      "##按": 4611,
      "##轨": 4612,
      "##及": 4613,
      "##喷": 4614,
      "##住": 4615,
      "##袖": 4616,
      "##坎": 4617,
      "##恢": 4618,
      "##彬": 4619,
      "##礼": 4620,
      "##需": 4621,
      "##辨": 4622,
      "##希": 4623,
      "##恩": 4624,
      "##杉": 4625,
      "##惠": 4626,
      "##候": 4627,
      "##庄": 4628,
      "##严": 4629,
      "##厅": 4630,
      "##幢": 4631,
      "##广": 4632,
      "##旅": 4633,
      "##游": 4634,
      "##景": 4635,
      "##女": 4636,
      "##碑": 4637,
      "##拍": 4638,
      "##谨": 4639,
      "##慎": 4640,
      "##离": 4641,
      "##民": 4642,
      "##月": 4643,
      "##迁": 4644,
      "##澳": 4645,
      "##泡": 4646,
      "##沫": 4647,
      "##停": 4648,
      "##凶": 4649,
      "##悍": 4650,
      "##痕": 4651,
      "##迹": 4652,
      "##株": 4653,
      "##鲜": 4654,
      "##灵": 4655,
      "##植": 4656,
      "##岁": 4657,
      "##苦": 4658,
      "##珠": 4659,
      "##冥": 4660,
      "##柯": 4661,
      "##符": 4662,
      "##低": 4663,
      "##陆": 4664,
      "##字": 4665,
      "##路": 4666,
      "##此": 4667,
      "##源": 4668,
      "##掩": 4669,
      "##凡": 4670,
      "##钮": 4671,
      "##朋": 4672,
      "##友": 4673,
      "##吞": 4674,
      "##毕": 4675,
      "##减": 4676,
      "##归": 4677,
      "##宿": 4678,
      "##倭": 4679,
      "##刀": 4680,
      "##茶": 4681,
      "##案": 4682,
      "##i": 4683,
      "##忽": 4684,
      "##抓": 4685,
      "##朵": 4686,
      "##件": 4687,
      "##束": 4688,
      "##府": 4689,
      "##铆": 4690,
      "##尚": 4691,
      "##嗜": 4692,
      "##惯": 4693,
      "##性": 4694,
      "##障": 4695,
      "##重": 4696,
      "##戴": 4697,
      "##盔": 4698,
      "##僵": 4699,
      "##零": 4700,
      "##慧": 4701,
      "##据": 4702,
      "##曾": 4703,
      "##嗡": 4704,
      "##萤": 4705,
      "##虫": 4706,
      "##迷": 4707,
      "##举": 4708,
      "##咽": 4709,
      "##哲": 4710,
      "##泰": 4711,
      "##妻": 4712,
      "##教": 4713,
      "##授": 4714,
      "##琳": 4715,
      "##草": 4716,
      "##绿": 4717,
      "##衣": 4718,
      "##卫": 4719,
      "##兵": 4720,
      "##彩": 4721,
      "##熟": 4722,
      "##悉": 4723,
      "##旗": 4724,
      "##袍": 4725,
      "##讲": 4726,
      "##课": 4727,
      "##扭": 4728,
      "##沟": 4729,
      "##壑": 4730,
      "##法": 4731,
      "##提": 4732,
      "##脱": 4733,
      "##禁": 4734,
      "##杀": 4735,
      "##安": 4736,
      "##区": 4737,
      "##较": 4738,
      "##赤": 4739,
      "##纬": 4740,
      "##升": 4741,
      "##循": 4742,
      "##颜": 4743,
      "##凄": 4744,
      "##惨": 4745,
      "##慰": 4746,
      "##末": 4747,
      "##日": 4748,
      "##艺": 4749,
      "##品": 4750,
      "##瑞": 4751,
      "##焦": 4752,
      "##写": 4753,
      "##串": 4754,
      "##诉": 4755,
      "##耐": 4756,
      "##香": 4757,
      "##蒂": 4758,
      "##缸": 4759,
      "##言": 4760,
      "##哦": 4761,
      "##今": 4762,
      "##救": 4763,
      "##援": 4764,
      "##朝": 4765,
      "##楼": 4766,
      "##晴": 4767,
      "##朗": 4768,
      "##童": 4769,
      "##阐": 4770,
      "##乐": 4771,
      "##患": 4772,
      "##医": 4773,
      "##疗": 4774,
      "##技": 4775,
      "##症": 4776,
      "##病": 4777,
      "##晚": 4778,
      "##网": 4779,
      "##迎": 4780,
      "##加": 4781,
      "##址": 4782,
      "##馆": 4783,
      "##皂": 4784,
      "##售": 4785,
      "##漫": 4786,
      "##价": 4787,
      "##式": 4788,
      "##争": 4789,
      "##弃": 4790,
      "##埃": 4791,
      "##宁": 4792,
      "##播": 4793,
      "##芒": 4794,
      "##卡": 4795,
      "##戎": 4796,
      "##晰": 4797,
      "##派": 4798,
      "##截": 4799,
      "##详": 4800,
      "##密": 4801,
      "##假": 4802,
      "##坍": 4803,
      "##各": 4804,
      "##仍": 4805,
      "##份": 4806,
      "##请": 4807,
      "##仔": 4808,
      "##背": 4809,
      "##拔": 4810,
      "##士": 4811,
      "##挥": 4812,
      "##局": 4813,
      "##供": 4814,
      "##旦": 4815,
      "##彻": 4816,
      "##崩": 4817,
      "##溃": 4818,
      "##压": 4819,
      "##疆": 4820,
      "##收": 4821,
      "##e": 4822,
      "##r": 4823,
      "##m": 4824,
      "##t": 4825,
      "##增": 4826,
      "##渐": 4827,
      "##稀": 4828,
      "##疏": 4829,
      "##裸": 4830,
      "##露": 4831,
      "##驶": 4832,
      "##汽": 4833,
      "##车": 4834,
      "##线": 4835,
      "##冽": 4836,
      "##寒": 4837,
      "##袋": 4838,
      "##羽": 4839,
      "##绒": 4840,
      "##醒": 4841,
      "##节": 4842,
      "##永": 4843,
      "##疯": 4844,
      "##壮": 4845,
      "##坠": 4846,
      "##惜": 4847,
      "##帝": 4848,
      "##破": 4849,
      "##荣": 4850,
      "##纤": 4851,
      "##揽": 4852,
      "##模": 4853,
      "##拟": 4854,
      "##寂": 4855,
      "##笼": 4856,
      "##罩": 4857,
      "##腕": 4858,
      "##摇": 4859,
      "##篮": 4860,
      "##置": 4861,
      "##愣": 4862,
      "##松": 4863,
      "##宣": 4864,
      "##降": 4865,
      "##临": 4866,
      "##纲": 4867,
      "##青": 4868,
      "##鬼": 4869,
      "##均": 4870,
      "##育": 4871,
      "##遍": 4872,
      "##箔": 4873,
      "##硬": 4874,
      "##柔": 4875,
      "##软": 4876,
      "##唱": 4877,
      "##指": 4878,
      "##勒": 4879,
      "##厂": 4880,
      "##股": 4881,
      "##艳": 4882,
      "##批": 4883,
      "##依": 4884,
      "##何": 4885,
      "##骤": 4886,
      "##藏": 4887,
      "##脑": 4888,
      "##伪": 4889,
      "##误": 4890,
      "##欺": 4891,
      "##骗": 4892,
      "##敌": 4893,
      "##扑": 4894,
      "##朔": 4895,
      "##宫": 4896,
      "##丧": 4897,
      "##迟": 4898,
      "##菜": 4899,
      "##蔬": 4900,
      "##农": 4901,
      "##药": 4902,
      "##残": 4903,
      "##冬": 4904,
      "##故": 4905,
      "##云": 4906,
      "##刮": 4907,
      "##伽": 4908,
      "##历": 4909,
      "##验": 4910,
      "##匠": 4911,
      "##叶": 4912,
      "##配": 4913,
      "##固": 4914,
      "##ⅲ": 4915,
      "##】": 4916,
      "##味": 4917,
      "##旷": 4918,
      "##费": 4919,
      "##害": 4920,
      "##办": 4921,
      "##野": 4922,
      "##顶": 4923,
      "##俯": 4924,
      "##旋": 4925,
      "##涡": 4926,
      "##幻": 4927,
      "##闲": 4928,
      "##描": 4929,
      "##且": 4930,
      "##担": 4931,
      "##辐": 4932,
      "##查": 4933,
      "##询": 4934,
      "##题": 4935,
      "##调": 4936,
      "##马": 4937,
      "##吨": 4938,
      "##考": 4939,
      "##虑": 4940,
      "##修": 4941,
      "##庸": 4942,
      "##俗": 4943,
      "##师": 4944,
      "##浓": 4945,
      "##珍": 4946,
      "##睛": 4947,
      "##呢": 4948,
      "##框": 4949,
      "##滔": 4950,
      "##卷": 4951,
      "##圣": 4952,
      "##紧": 4953,
      "##急": 4954,
      "##竭": 4955,
      "##皮": 4956,
      "##掌": 4957,
      "##蓬": 4958,
      "##脸": 4959,
      "##憔": 4960,
      "##悴": 4961,
      "##挠": 4962,
      "##呆": 4963,
      "##滞": 4964,
      "##晨": 4965,
      "##曦": 4966,
      "##茫": 4967,
      "##麻": 4968,
      "##陷": 4969,
      "##刚": 4970,
      "##惧": 4971,
      "##—": 4972,
      "##否": 4973,
      "##刑": 4974,
      "##潮": 4975,
      "##愉": 4976,
      "##辈": 4977,
      "##启": 4978,
      "##驱": 4979,
      "##厘": 4980,
      "##阶": 4981,
      "##l": 4982,
      "##丑": 4983,
      "##陋": 4984,
      "##漉": 4985,
      "##蠕": 4986,
      "##闪": 4987,
      "##眸": 4988,
      "##六": 4989,
      "##齐": 4990,
      "##列": 4991,
      "##纵": 4992,
      "##躲": 4993,
      "##荒": 4994,
      "##凉": 4995,
      "##灰": 4996,
      "##储": 4997,
      "##咨": 4998,
      "##料": 4999,
      "##晋": 5000,
      "##九": 5001,
      "##骨": 5002,
      "##蓄": 5003,
      "##缺": 5004,
      "##乏": 5005,
      "##期": 5006,
      "##爆": 5007,
      "##螺": 5008,
      "##眨": 5009,
      "##稳": 5010,
      "##昼": 5011,
      "##决": 5012,
      "##骸": 5013,
      "##含": 5014,
      "##占": 5015,
      "##委": 5016,
      "##势": 5017,
      "##仰": 5018,
      "##胡": 5019,
      "##厉": 5020,
      "##漠": 5021,
      "##洋": 5022,
      "##疑": 5023,
      "##支": 5024,
      "##骂": 5025,
      "##乌": 5026,
      "##龟": 5027,
      "##胜": 5028,
      "##值": 5029,
      "##班": 5030,
      "##睡": 5031,
      "##妈": 5032,
      "##避": 5033,
      "##免": 5034,
      "##飘": 5035,
      "##碰": 5036,
      "##撞": 5037,
      "##院": 5038,
      "##敢": 5039,
      "##忍": 5040,
      "##咀": 5041,
      "##埋": 5042,
      "##葬": 5043,
      "##田": 5044,
      "##鹊": 5045,
      "##觅": 5046,
      "##涸": 5047,
      "##床": 5048,
      "##央": 5049,
      "##拾": 5050,
      "##卵": 5051,
      "##薄": 5052,
      "##砸": 5053,
      "##涌": 5054,
      "##镇": 5055,
      "##集": 5056,
      "##逛": 5057,
      "##蹲": 5058,
      "##卖": 5059,
      "##鱼": 5060,
      "##摊": 5061,
      "##玻": 5062,
      "##璃": 5063,
      "##买": 5064,
      "##塑": 5065,
      "##阜": 5066,
      "##村": 5067,
      "##乡": 5068,
      "##泥": 5069,
      "##街": 5070,
      "##毛": 5071,
      "##腿": 5072,
      "##寄": 5073,
      "##戏": 5074,
      "##叹": 5075,
      "##搭": 5076,
      "##劲": 5077,
      "##爬": 5078,
      "##楂": 5079,
      "##午": 5080,
      "##饭": 5081,
      "##倍": 5082,
      "##椅": 5083,
      "##暖": 5084,
      "##昏": 5085,
      "##欲": 5086,
      "##缰": 5087,
      "##d": 5088,
      "##炊": 5089,
      "##述": 5090,
      "##负": 5091,
      "##勤": 5092,
      "##贮": 5093,
      "##努": 5094,
      "##编": 5095,
      "##眠": 5096,
      "##玲": 5097,
      "##亨": 5098,
      "##盼": 5099,
      "##噪": 5100,
      "##屏": 5101,
      "##幕": 5102,
      "##嗯": 5103,
      "##累": 5104,
      "##休": 5105,
      "##衷": 5106,
      "##莫": 5107,
      "##陪": 5108,
      "##伴": 5109,
      "##猜": 5110,
      "##炉": 5111,
      "##寞": 5112,
      "##材": 5113,
      "##粗": 5114,
      "##佑": 5115,
      "##牛": 5116,
      "##_": 5117,
      "##耽": 5118,
      "##句": 5119,
      "##杨": 5120,
      "##跟": 5121,
      "##丢": 5122,
      "##佳": 5123,
      "##娱": 5124,
      "##寻": 5125,
      "##哗": 5126,
      "##宠": 5127,
      "##媒": 5128,
      "##堵": 5129,
      "##塞": 5130,
      "##胁": 5131,
      "##规": 5132,
      "##疲": 5133,
      "##惫": 5134,
      "##闷": 5135,
      "##慌": 5136,
      "##沿": 5137,
      "##摸": 5138,
      "##董": 5139,
      "##敬": 5140,
      "##忠": 5141,
      "##姿": 5142,
      "##抢": 5143,
      "##良": 5144,
      "##燥": 5145,
      "##换": 5146,
      "##估": 5147,
      "##绳": 5148,
      "##索": 5149,
      "##借": 5150,
      "##悬": 5151,
      "##崖": 5152,
      "##剩": 5153,
      "##叠": 5154,
      "##锯": 5155,
      "##折": 5156,
      "##宏": 5157,
      "##久": 5158,
      "##熵": 5159,
      "##翻": 5160,
      "##颠": 5161,
      "##峡": 5162,
      "##谷": 5163,
      "##隆": 5164,
      "##峰": 5165,
      "##阔": 5166,
      "##灾": 5167,
      "##族": 5168,
      "##饕": 5169,
      "##餮": 5170,
      "##喻": 5171,
      "##蔽": 5172,
      "##攻": 5173,
      "##征": 5174,
      "##蛛": 5175,
      "##况": 5176,
      "##棚": 5177,
      "##屋": 5178,
      "##晕": 5179,
      "##幽": 5180,
      "##扣": 5181,
      "##8": 5182,
      "##6": 5183,
      "##扬": 5184,
      "##男": 5185,
      "##誓": 5186,
      "##词": 5187,
      "##轮": 5188,
      "##微": 5189,
      "##夸": 5190,
      "##李": 5191,
      "##鼠": 5192,
      "##凑": 5193,
      "##郝": 5194,
      "##蘑": 5195,
      "##菇": 5196,
      "##缓": 5197,
      "##挖": 5198,
      "##哄": 5199,
      "##怀": 5200,
      "##创": 5201,
      "##粒": 5202,
      "##．": 5203,
      "##素": 5204,
      "##济": 5205,
      "##缘": 5206,
      "##丰": 5207,
      "##恰": 5208,
      "##梯": 5209,
      "##刺": 5210,
      "##伤": 5211,
      "##澈": 5212,
      "##粼": 5213,
      "##摩": 5214,
      "##损": 5215,
      "##犯": 5216,
      "##吹": 5217,
      "##耳": 5218,
      "##伦": 5219,
      "##坡": 5220,
      "##阿": 5221,
      "##夫": 5222,
      "##悲": 5223,
      "##痛": 5224,
      "##跌": 5225,
      "##校": 5226,
      "##苏": 5227,
      "##缀": 5228,
      "##华": 5229,
      "##簇": 5230,
      "##怕": 5231,
      "##慈": 5232,
      "##牢": 5233,
      "##拴": 5234,
      "##胶": 5235,
      "##貌": 5236,
      "##届": 5237,
      "##厦": 5238,
      "##摆": 5239,
      "##琴": 5240,
      "##喝": 5241,
      "##吼": 5242,
      "##译": 5243,
      "##笨": 5244,
      "##拙": 5245,
      "##弄": 5246,
      "##奔": 5247,
      "##跑": 5248,
      "##欧": 5249,
      "##采": 5250,
      "##宪": 5251,
      "##耗": 5252,
      "##范": 5253,
      "##摄": 5254,
      "##杰": 5255,
      "##拎": 5256,
      "##遭": 5257,
      "##纠": 5258,
      "##陌": 5259,
      "##淹": 5260,
      "##篝": 5261,
      "##奥": 5262,
      "##颤": 5263,
      "##抖": 5264,
      "##p": 5265,
      "##c": 5266,
      "##席": 5267,
      "##秘": 5268,
      "##迄": 5269,
      "##送": 5270,
      "##律": 5271,
      "##废": 5272,
      "##咒": 5273,
      "##崇": 5274,
      "##拜": 5275,
      "##孙": 5276,
      "##燎": 5277,
      "##谜": 5278,
      "##拯": 5279,
      "##赎": 5280,
      "##招": 5281,
      "##踊": 5282,
      "##跃": 5283,
      "##络": 5284,
      "##吸": 5285,
      "##毒": 5286,
      "##沙": 5287,
      "##劫": 5288,
      "##幅": 5289,
      "##贴": 5290,
      "##旧": 5291,
      "##驭": 5292,
      "##瞬": 5293,
      "##熄": 5294,
      "##刊": 5295,
      "##楚": 5296,
      "##逝": 5297,
      "##江": 5298,
      "##兀": 5299,
      "##嘛": 5300,
      "##麦": 5301,
      "##例": 5302,
      "##检": 5303,
      "##省": 5304,
      "##丈": 5305,
      "##堪": 5306,
      "##焉": 5307,
      "##益": 5308,
      "##阈": 5309,
      "##频": 5310,
      "##斜": 5311,
      "##挂": 5312,
      "##坑": 5313,
      "##务": 5314,
      "##夹": 5315,
      "##鼓": 5316,
      "##营": 5317,
      "##港": 5318,
      "##忙": 5319,
      "##碌": 5320,
      "##洗": 5321,
      "##澡": 5322,
      "##浴": 5323,
      "##（": 5324,
      "##阅": 5325,
      "##读": 5326,
      "##）": 5327,
      "##荐": 5328,
      "##夺": 5329,
      "##赫": 5330,
      "##辛": 5331,
      "##肥": 5332,
      "##陈": 5333,
      "##瞰": 5334,
      "##拖": 5335,
      "##叛": 5336,
      "##沃": 5337,
      "##径": 5338,
      "##盟": 5339,
      "##革": 5340,
      "##辉": 5341,
      "##蕴": 5342,
      "##针": 5343,
      "##淋": 5344,
      "##漓": 5345,
      "##余": 5346,
      "##艰": 5347,
      "##阱": 5348,
      "##散": 5349,
      "##匆": 5350,
      "##赶": 5351,
      "##姨": 5352,
      "##握": 5353,
      "##仅": 5354,
      "##弟": 5355,
      "##溺": 5356,
      "##盆": 5357,
      "##迫": 5358,
      "##阮": 5359,
      "##雯": 5360,
      "##闹": 5361,
      "##桥": 5362,
      "##籍": 5363,
      "##楠": 5364,
      "##浸": 5365,
      "##雅": 5366,
      "##湾": 5367,
      "##抄": 5368,
      "##鞋": 5369,
      "##脖": 5370,
      "##腐": 5371,
      "##朽": 5372,
      "##级": 5373,
      "##账": 5374,
      "##著": 5375,
      "##抛": 5376,
      "##诞": 5377,
      "##七": 5378,
      "##拥": 5379,
      "##抱": 5380,
      "##-": 5381,
      "##获": 5382,
      "##鹅": 5383,
      "##衬": 5384,
      "##镌": 5385,
      "##簿": 5386,
      "##摞": 5387,
      "##版": 5388,
      "##督": 5389,
      "##宗": 5390,
      "##罪": 5391,
      "##狱": 5392,
      "##醉": 5393,
      "##恋": 5394,
      "##助": 5395,
      "##肩": 5396,
      "##扶": 5397,
      "##汉": 5398,
      "##熙": 5399,
      "##攘": 5400,
      "##窝": 5401,
      "##俱": 5402,
      "##雨": 5403,
      "##贯": 5404,
      "##振": 5405,
      "##弦": 5406,
      "##衰": 5407,
      "##煤": 5408,
      "##+": 5409,
      "##=": 5410,
      "##夏": 5411,
      "##左": 5412,
      "##右": 5413,
      "##析": 5414,
      "##扇": 5415,
      "##瞪": 5416,
      "##烧": 5417,
      "##狞": 5418,
      "##z": 5419,
      "##o": 5420,
      "##耍": 5421,
      "##锵": 5422,
      "##繁": 5423,
      "##劳": 5424,
      "##粉": 5425,
      "##砾": 5426,
      "##辙": 5427,
      "##煌": 5428,
      "##渍": 5429,
      "##臣": 5430,
      "##博": 5431,
      "##额": 5432,
      "##掉": 5433,
      "##渣": 5434,
      "##帅": 5435,
      "##哥": 5436,
      "##靓": 5437,
      "##妹": 5438,
      "##耕": 5439,
      "##奸": 5440,
      "##桃": 5441,
      "##赛": 5442,
      "##奖": 5443,
      "##篇": 5444,
      "##邪": 5445,
      "##财": 5446,
      "##膜": 5447,
      "##褂": 5448,
      "##玫": 5449,
      "##瑰": 5450,
      "##淡": 5451,
      "##悦": 5452,
      "##霞": 5453,
      "##钝": 5454,
      "##败": 5455,
      "##污": 5456,
      "##染": 5457,
      "##扯": 5458,
      "##凌": 5459,
      "##熔": 5460,
      "##妖": 5461,
      "##撒": 5462,
      "##傻": 5463,
      "##妞": 5464,
      "##挪": 5465,
      "##盘": 5466,
      "##噼": 5467,
      "##啪": 5468,
      "##啦": 5469,
      "##摔": 5470,
      "##矩": 5471,
      "##搓": 5472,
      "##怨": 5473,
      "##婆": 5474,
      "##娑": 5475,
      "##艾": 5476,
      "##克": 5477,
      "##刘": 5478,
      "##畏": 5479,
      "##彤": 5480,
      "##逻": 5481,
      "##晷": 5482,
      "##暂": 5483,
      "##录": 5484,
      "##篷": 5485,
      "##靴": 5486,
      "##沧": 5487,
      "##桑": 5488,
      "##酒": 5489,
      "##弗": 5490,
      "##嫉": 5491,
      "##妒": 5492,
      "##优": 5493,
      "##泉": 5494,
      "##嘀": 5495,
      "##嗒": 5496,
      "##烦": 5497,
      "##拦": 5498,
      "##箱": 5499,
      "##梅": 5500,
      "##皱": 5501,
      "##苍": 5502,
      "##羡": 5503,
      "##慕": 5504,
      "##琼": 5505,
      "##怒": 5506,
      "##卑": 5507,
      "##穷": 5508,
      "##岂": 5509,
      "##溪": 5510,
      "##忧": 5511,
      "##倾": 5512,
      "##朕": 5513,
      "##秦": 5514,
      "##皇": 5515,
      "##冯": 5516,
      "##诺": 5517,
      "##曼": 5518,
      "##君": 5519,
      "##搁": 5520,
      "##漂": 5521,
      "##狭": 5522,
      "##铺": 5523,
      "##虚": 5524,
      "##扰": 5525,
      "##斑": 5526,
      "##乳": 5527,
      "##撼": 5528,
      "##粮": 5529,
      "##仓": 5530,
      "##玛": 5531,
      "##扎": 5532,
      "##诗": 5533,
      "##贫": 5534,
      "##渴": 5535,
      "##挤": 5536,
      "##/": 5537,
      "##饱": 5538,
      "##曹": 5539,
      "##廊": 5540,
      "##奈": 5541,
      "##郭": 5542,
      "##弯": 5543,
      "##箭": 5544,
      "##悔": 5545,
      "##违": 5546,
      "##犬": 5547,
      "##遏": 5548,
      "##谐": 5549,
      "##剧": 5550,
      "##斐": 5551,
      "##氛": 5552,
      "##懒": 5553,
      "##翔": 5554,
      "##芯": 5555,
      "##棵": 5556,
      "##枯": 5557,
      "##砍": 5558,
      "##柴": 5559,
      "##镰": 5560,
      "##胸": 5561,
      "##职": 5562,
      "##恳": 5563,
      "##协": 5564,
      "##鞠": 5565,
      "##躬": 5566,
      "##厚": 5567,
      "##困": 5568,
      "##催": 5569,
      "##帽": 5570,
      "##氧": 5571,
      "##荆": 5572,
      "##瞄": 5573,
      "##练": 5574,
      "##灿": 5575,
      "##烂": 5576,
      "##凭": 5577,
      "##搜": 5578,
      "##淫": 5579,
      "##荡": 5580,
      "##妩": 5581,
      "##悄": 5582,
      "##萎": 5583,
      "##舷": 5584,
      "##训": 5585,
      "##邀": 5586,
      "##呀": 5587,
      "##嫌": 5588,
      "##购": 5589,
      "##圈": 5590,
      "##奋": 5591,
      "##梦": 5592,
      "##添": 5593,
      "##绑": 5594,
      "##柱": 5595,
      "##蛇": 5596,
      "##血": 5597,
      "##逼": 5598,
      "##谎": 5599,
      "##潘": 5600,
      "##裕": 5601,
      "##户": 5602,
      "##囊": 5603,
      "##享": 5604,
      "##沐": 5605,
      "##春": 5606,
      "##赞": 5607,
      "##诸": 5608,
      "##喧": 5609,
      "##伏": 5610,
      "##奄": 5611,
      "##揭": 5612,
      "##歉": 5613,
      "##筒": 5614,
      "##捷": 5615,
      "##尺": 5616,
      "##呗": 5617,
      "##j": 5618,
      "##井": 5619,
      "##匀": 5620,
      "##帮": 5621,
      "##歧": 5622,
      "##讥": 5623,
      "##祈": 5624,
      "##祷": 5625,
      "##巡": 5626,
      "##肉": 5627,
      "##汗": 5628,
      "##偏": 5629,
      "##寺": 5630,
      "##枚": 5631,
      "##擅": 5632,
      "##咆": 5633,
      "##哮": 5634,
      "##瓷": 5635,
      "##署": 5636,
      "##纂": 5637,
      "##墨": 5638,
      "##抚": 5639,
      "##库": 5640,
      "##枝": 5641,
      "##芦": 5642,
      "##苇": 5643,
      "##雁": 5644,
      "##娟": 5645,
      "##秀": 5646,
      "##拢": 5647,
      "##呜": 5648,
      "##笛": 5649,
      "##炫": 5650,
      "##睁": 5651,
      "##墅": 5652,
      "##踹": 5653,
      "##硕": 5654,
      "##躯": 5655,
      "##敏": 5656,
      "##魏": 5657,
      "##客": 5658,
      "##踏": 5659,
      "##淌": 5660,
      "##申": 5661,
      "##玉": 5662,
      "##菲": 5663,
      "##玩": 5664,
      "##躺": 5665,
      "##孔": 5666,
      "##眉": 5667,
      "##糊": 5668,
      "##攀": 5669,
      "##褪": 5670,
      "##肚": 5671,
      "##插": 5672,
      "##贸": 5673,
      "##昨": 5674,
      "##熊": 5675,
      "##序": 5676,
      "##碍": 5677,
      "##载": 5678,
      "##拳": 5679,
      "##奏": 5680,
      "##搏": 5681,
      "##藻": 5682,
      "##戮": 5683,
      "##嫩": 5684,
      "##穴": 5685,
      "##塌": 5686,
      "##巳": 5687,
      "##黎": 5688,
      "##塔": 5689,
      "##戈": 5690,
      "##滩": 5691,
      "##丘": 5692,
      "##窒": 5693,
      "##套": 5694,
      "##摘": 5695,
      "##g": 5696,
      "##撑": 5697,
      "##韦": 5698,
      "##堤": 5699,
      "##坝": 5700,
      "##涓": 5701,
      "##刷": 5702,
      "##隙": 5703,
      "##湍": 5704,
      "##英": 5705,
      "##霖": 5706,
      "##疼": 5707,
      "##陛": 5708,
      "##若": 5709,
      "##踪": 5710,
      "##企": 5711,
      "##氮": 5712,
      "##嘈": 5713,
      "##逐": 5714,
      "##萦": 5715,
      "##绕": 5716,
      "##驾": 5717,
      "##狙": 5718,
      "##施": 5719,
      "##捧": 5720,
      "##舞": 5721,
      "##盲": 5722,
      "##允": 5723,
      "##'": 5724,
      "##履": 5725,
      "##寸": 5726,
      "##尊": 5727,
      "##顾": 5728,
      "##晌": 5729,
      "##锅": 5730,
      "##擀": 5731,
      "##杖": 5732,
      "##乒": 5733,
      "##乓": 5734,
      "##棒": 5735,
      "##饶": 5736,
      "##搞": 5737,
      "##坏": 5738,
      "##诈": 5739,
      "##甜": 5740,
      "##舍": 5741,
      "##甲": 5742,
      "##抵": 5743,
      "##抗": 5744,
      "##诚": 5745,
      "##尼": 5746,
      "##逾": 5747,
      "##伐": 5748,
      "##垃": 5749,
      "##圾": 5750,
      "##骑": 5751,
      "##挡": 5752,
      "##轴": 5753,
      "##咋": 5754,
      "##螳": 5755,
      "##螂": 5756,
      "##携": 5757,
      "##钉": 5758,
      "##锤": 5759,
      "##敲": 5760,
      "##髂": 5761,
      "##叉": 5762,
      "##链": 5763,
      "##澄": 5764,
      "##魂": 5765,
      "##霹": 5766,
      "##雳": 5767,
      "##°": 5768,
      "##肤": 5769,
      "##裹": 5770,
      "##销": 5771,
      "##跳": 5772,
      "##蛋": 5773,
      "##孵": 5774,
      "##钻": 5775,
      "##灼": 5776,
      "##扁": 5777,
      "##鹿": 5778,
      "##页": 5779,
      "##朴": 5780,
      "##溅": 5781,
      "##键": 5782,
      "##弓": 5783,
      "##}": 5784,
      "##婚": 5785,
      "##姻": 5786,
      "##缚": 5787,
      "##茄": 5788,
      "##揣": 5789,
      "##割": 5790,
      "##磨": 5791,
      "##非": 5792,
      "##傍": 5793,
      "##稚": 5794,
      "##搀": 5795,
      "##腰": 5796,
      "##亭": 5797,
      "##怜": 5798,
      "##夕": 5799,
      "##俺": 5800,
      "##偶": 5801,
      "##羞": 5802,
      "##涩": 5803,
      "##缜": 5804,
      "##欠": 5805,
      "##徽": 5806,
      "##既": 5807,
      "##哀": 5808,
      "##爸": 5809,
      "##祥": 5810,
      "##兆": 5811,
      "##匕": 5812,
      "##码": 5813,
      "##逊": 5814,
      "##徘": 5815,
      "##徊": 5816,
      "##饰": 5817,
      "##蹈": 5818,
      "##巧": 5819,
      "##纽": 5820,
      "##肺": 5821,
      "##癌": 5822,
      "##疫": 5823,
      "##晦": 5824,
      "##渠": 5825,
      "##矛": 5826,
      "##盾": 5827,
      "##诅": 5828,
      "##捡": 5829,
      "##宜": 5830,
      "##纷": 5831,
      "##鸡": 5832,
      "##藤": 5833,
      "##姓": 5834,
      "##铭": 5835,
      "##涉": 5836,
      "##郁": 5837,
      "##曜": 5838,
      "##咫": 5839,
      "##歼": 5840,
      "##栖": 5841,
      "##忌": 5842,
      "##垂": 5843,
      "##穹": 5844,
      "##b": 5845,
      "##f": 5846,
      "##缕": 5847,
      "##嘿": 5848,
      "##兼": 5849,
      "##k": 5850,
      "##抑": 5851,
      "##徒": 5852,
      "##腊": 5853,
      "##栓": 5854,
      "##退": 5855,
      "##矣": 5856,
      "##付": 5857,
      "##祛": 5858,
      "##培": 5859,
      "##喃": 5860,
      "##予": 5861,
      "##衔": 5862,
      "##健": 5863,
      "##挟": 5864,
      "##遮": 5865,
      "##ⅱ": 5866,
      "##哈": 5867,
      "##岔": 5868,
      "##肖": 5869,
      "##硼": 5870,
      "##撇": 5871,
      "##痴": 5872,
      "##谣": 5873,
      "##勉": 5874,
      "##幼": 5875,
      "##刃": 5876,
      "##【": 5877,
      "##牺": 5878,
      "##牲": 5879,
      "##彼": 5880,
      "##趟": 5881,
      "##y": 5882,
      "##池": 5883,
      "##锈": 5884,
      "##逮": 5885,
      "##捕": 5886,
      "##箍": 5887,
      "##臂": 5888,
      "##寝": 5889,
      "##吻": 5890,
      "##昭": 5891,
      "##噢": 5892,
      "##览": 5893,
      "##侵": 5894,
      "##删": 5895,
      "##瘦": 5896,
      "##款": 5897,
      "##贾": 5898,
      "##肿": 5899,
      "##瘤": 5900,
      "##贡": 5901,
      "##疾": 5902,
      "##访": 5903,
      "##唤": 5904,
      "##煞": 5905,
      "##雄": 5906,
      "##刹": 5907,
      "##纣": 5908,
      "##x": 5909,
      "##羸": 5910,
      "##堂": 5911,
      "##鲁": 5912,
      "##羊": 5913,
      "##巾": 5914,
      "##棋": 5915,
      "##践": 5916,
      "##尤": 5917,
      "##拆": 5918,
      "##痹": 5919,
      "##扮": 5920,
      "##颈": 5921,
      "##托": 5922,
      "##庞": 5923,
      "##吁": 5924,
      "##婴": 5925,
      "##.": 5926,
      "##晟": 5927,
      "##瞥": 5928,
      "##墟": 5929,
      "##秸": 5930,
      "##秆": 5931,
      "##蹿": 5932,
      "##煎": 5933,
      "##熬": 5934,
      "##仁": 5935,
      "##浆": 5936,
      "##妙": 5937,
      "##眩": 5938,
      "##斟": 5939,
      "##酌": 5940,
      "##萌": 5941,
      "##①": 5942,
      "##恕": 5943,
      "##撤": 5944,
      "##陶": 5945,
      "##畔": 5946,
      "##燃": 5947,
      "##烹": 5948,
      "##弧": 5949,
      "##梳": 5950,
      "##锚": 5951,
      "##巍": 5952,
      "##烛": 5953,
      "##餐": 5954,
      "##乔": 5955,
      "##狄": 5956,
      "##燕": 5957,
      "##忆": 5958,
      "##勇": 5959,
      "##凝": 5960,
      "##漏": 5961,
      "##拒": 5962,
      "##铸": 5963,
      "##犁": 5964,
      "##抡": 5965,
      "##替": 5966,
      "##娃": 5967,
      "##枕": 5968,
      "##篆": 5969,
      "##汇": 5970,
      "##赖": 5971,
      "##隋": 5972,
      "##鑫": 5973,
      "##擎": 5974,
      "##掷": 5975,
      "##瓜": 5976,
      "##泛": 5977,
      "##滥": 5978,
      "##趁": 5979,
      "##帘": 5980,
      "##劣": 5981,
      "##输": 5982,
      "##鼻": 5983,
      "##涕": 5984,
      "##嗓": 5985,
      "##炎": 5986,
      "##芝": 5987,
      "##尉": 5988,
      "##甩": 5989,
      "##唠": 5990,
      "##叨": 5991,
      "##悟": 5992,
      "##颊": 5993,
      "##拐": 5994,
      "##签": 5995,
      "##u": 5996,
      "##渡": 5997,
      "##绵": 5998,
      "##愚": 5999,
      "##涨": 6000,
      "##舆": 6001,
      "##猛": 6002,
      "##帕": 6003,
      "##披": 6004,
      "##绣": 6005,
      "##吉": 6006,
      "##溜": 6007,
      "##爵": 6008,
      "##偷": 6009,
      "##匹": 6010,
      "##措": 6011,
      "##汤": 6012,
      "##嗤": 6013,
      "##玄": 6014,
      "##臆": 6015,
      "##烁": 6016,
      "##柄": 6017,
      "##啸": 6018,
      "##挽": 6019,
      "##忒": 6020,
      "##`": 6021,
      "##吐": 6022,
      "##闸": 6023,
      "##缆": 6024,
      "##咳": 6025,
      "##嗽": 6026,
      "##俩": 6027,
      "##饿": 6028,
      "##侦": 6029,
      "##迈": 6030,
      "##净": 6031,
      "##荧": 6032,
      "##锋": 6033,
      "##陡": 6034,
      "##峭": 6035,
      "##拘": 6036,
      "##擦": 6037,
      "##剥": 6038,
      "##殆": 6039,
      "##彗": 6040,
      "##杜": 6041,
      "##赠": 6042,
      "##挫": 6043,
      "##拷": 6044,
      "##典": 6045,
      "##噩": 6046,
      "##%": 6047,
      "##碳": 6048,
      "##蜘": 6049,
      "##肢": 6050,
      "##拂": 6051,
      "##丛": 6052,
      "##髻": 6053,
      "##佩": 6054,
      "##蚂": 6055,
      "##润": 6056,
      "##翠": 6057,
      "##骼": 6058,
      "##惕": 6059,
      "##脯": 6060,
      "##砖": 6061,
      "##缝": 6062,
      "##脉": 6063,
      "##恨": 6064,
      "##厕": 6065,
      "##逆": 6066,
      "##狠": 6067,
      "##隧": 6068,
      "##鄙": 6069,
      "##姐": 6070,
      "##桨": 6071,
      "##悸": 6072,
      "##垮": 6073,
      "##惋": 6074,
      "##稿": 6075,
      "##洒": 6076,
      "##吵": 6077,
      "##搅": 6078,
      "##沮": 6079,
      "##菌": 6080,
      "##爷": 6081,
      "##柬": 6082,
      "##鸽": 6083,
      "##宴": 6084,
      "##奢": 6085,
      "##侈": 6086,
      "##馒": 6087,
      "##烤": 6088,
      "##豆": 6089,
      "##～": 6090,
      "##阻": 6091,
      "##湮": 6092,
      "##冗": 6093,
      "##焚": 6094,
      "##炭": 6095,
      "##狼": 6096,
      "##粘": 6097,
      "##浇": 6098,
      "##嘭": 6099,
      "##壳": 6100,
      "##簸": 6101,
      "##窖": 6102,
      "##泼": 6103,
      "##契": 6104,
      "##冀": 6105,
      "##坞": 6106,
      "##焊": 6107,
      "##讯": 6108,
      "##猎": 6109,
      "##韩": 6110,
      "##梧": 6111,
      "##桐": 6112,
      "##商": 6113,
      "##嗨": 6114,
      "##盒": 6115,
      "##毅": 6116,
      "##绩": 6117,
      "##梵": 6118,
      "##豪": 6119,
      "##赌": 6120,
      "##撕": 6121,
      "##勃": 6122,
      "##敦": 6123,
      "##促": 6124,
      "##甸": 6125,
      "##瞒": 6126,
      "##磕": 6127,
      "##秃": 6128,
      "##晃": 6129,
      "##涤": 6130,
      "##娇": 6131,
      "##店": 6132,
      "##舟": 6133,
      "##盏": 6134,
      "##兄": 6135,
      "##膀": 6136,
      "##邮": 6137,
      "##睑": 6138,
      "##缤": 6139,
      "##洪": 6140,
      "##眶": 6141,
      "##殿": 6142,
      "##挑": 6143,
      "##筹": 6144,
      "##俘": 6145,
      "##竞": 6146,
      "##僚": 6147,
      "##戳": 6148,
      "##谓": 6149,
      "##暮": 6150,
      "##阁": 6151,
      "##撩": 6152,
      "##痒": 6153,
      "##谱": 6154,
      "##矢": 6155,
      "##挨": 6156,
      "##蜡": 6157,
      "##堡": 6158,
      "##诣": 6159,
      "##鉴": 6160,
      "##剐": 6161,
      "##祝": 6162,
      "##洛": 6163,
      "##辅": 6164,
      "##剪": 6165,
      "##殊": 6166,
      "##雕": 6167,
      "##烙": 6168,
      "##辫": 6169,
      "##裙": 6170,
      "##勾": 6171,
      "##渊": 6172,
      "##毯": 6173,
      "##谅": 6174,
      "##丹": 6175,
      "##掀": 6176,
      "##卜": 6177,
      "##吓": 6178,
      "##吊": 6179,
      "##货": 6180,
      "##滤": 6181,
      "##凸": 6182,
      "##瘫": 6183,
      "##雏": 6184,
      "##庆": 6185,
      "##票": 6186,
      "##徐": 6187,
      "##县": 6188,
      "##橡": 6189,
      "##厢": 6190,
      "##吮": 6191,
      "##漆": 6192,
      "##廓": 6193,
      "##恍": 6194,
      "##蔼": 6195,
      "##趋": 6196,
      "##遣": 6197,
      "##曙": 6198,
      "##脊": 6199,
      "##浅": 6200,
      "##烬": 6201,
      "##脂": 6202,
      "##陨": 6203,
      "##黯": 6204,
      "##宅": 6205,
      "##柜": 6206,
      "##蚀": 6207,
      "##龄": 6208,
      "##闯": 6209,
      "##袅": 6210,
      "##蹄": 6211,
      "##秩": 6212,
      "##猫": 6213,
      "##棉": 6214,
      "##锡": 6215,
      "##氏": 6216,
      "##熨": 6217,
      "##毡": 6218,
      "##谦": 6219,
      "##掠": 6220,
      "##瞎": 6221,
      "##卓": 6222,
      "##逢": 6223,
      "##葡": 6224,
      "##萄": 6225,
      "##晒": 6226,
      "##陵": 6227,
      "##棱": 6228,
      "##辞": 6229,
      "##姗": 6230,
      "##遵": 6231,
      "##漾": 6232,
      "##齿": 6233,
      "##尴": 6234,
      "##尬": 6235,
      "##蚊": 6236,
      "##剂": 6237,
      "##妥": 6238,
      "##肌": 6239,
      "##弛": 6240,
      "##莱": 6241,
      "##墩": 6242,
      "##肃": 6243,
      "##鹏": 6244,
      "##翅": 6245,
      "##杆": 6246,
      "##骄": 6247,
      "##傲": 6248,
      "##勿": 6249,
      "##铠": 6250,
      "##豁": 6251,
      "##琐": 6252,
      "##碾": 6253,
      "##荷": 6254,
      "##耶": 6255,
      "##稣": 6256,
      "##迸": 6257,
      "##斧": 6258,
      "##京": 6259,
      "##坛": 6260,
      "##薇": 6261,
      "##浩": 6262,
      "##舔": 6263,
      "##钥": 6264,
      "##匙": 6265,
      "##劝": 6266,
      "##裤": 6267,
      "##嚼": 6268,
      "##川": 6269,
      "##壤": 6270,
      "##肋": 6271,
      "##褥": 6272,
      "##凹": 6273,
      "##胞": 6274,
      "##袒": 6275,
      "##w": 6276,
      "##h": 6277,
      "##叼": 6278,
      "##乃": 6279,
      "##滋": 6280,
      "##诱": 6281,
      "##垩": 6282,
      "##俄": 6283,
      "##轩": 6284,
      "##蔓": 6285,
      "##偿": 6286,
      "##倡": 6287,
      "##讼": 6288,
      "##峻": 6289,
      "##巫": 6290,
      "##蝗": 6291,
      "##郑": 6292,
      "##睹": 6293,
      "##哑": 6294,
      "##哼": 6295,
      "##跪": 6296,
      "##呸": 6297,
      "##±": 6298,
      "##誉": 6299,
      "##溢": 6300,
      "##姬": 6301,
      "##昌": 6302,
      "##袭": 6303,
      "##胆": 6304,
      "##棍": 6305,
      "##奶": 6306,
      "##哎": 6307,
      "##柳": 6308,
      "##罕": 6309,
      "##戛": 6310,
      "##籁": 6311,
      "##捻": 6312,
      "##倔": 6313,
      "##泾": 6314,
      "##渭": 6315,
      "##贝": 6316,
      "##叔": 6317,
      "##屯": 6318,
      "##蹒": 6319,
      "##跚": 6320,
      "##啷": 6321,
      "##嬴": 6322,
      "##州": 6323,
      "##甄": 6324,
      "##祭": 6325,
      "##寿": 6326,
      "##媲": 6327,
      "##喉": 6328,
      "##搐": 6329,
      "##哇": 6330,
      "##呕": 6331,
      "##憋": 6332,
      "##紫": 6333,
      "##焕": 6334,
      "##惬": 6335,
      "##竹": 6336,
      "##聊": 6337,
      "##邻": 6338,
      "##斓": 6339,
      "##悯": 6340,
      "##恼": 6341,
      "##迂": 6342,
      "##稽": 6343,
      "##叮": 6344,
      "##嘱": 6345,
      "##纰": 6346,
      "##逸": 6347,
      "##侥": 6348,
      "##韧": 6349,
      "##骡": 6350,
      "##捂": 6351,
      "##铝": 6352,
      "##肝": 6353,
      "##胰": 6354,
      "##腺": 6355,
      "##炽": 6356,
      "##妮": 6357,
      "##炙": 6358,
      "##朦": 6359,
      "##胧": 6360,
      "##惩": 6361,
      "##罚": 6362,
      "##腹": 6363,
      "##爽": 6364,
      "##悖": 6365,
      "##耸": 6366,
      "##赔": 6367,
      "##涟": 6368,
      "##辱": 6369,
      "##押": 6370,
      "##囚": 6371,
      "##嘶": 6372,
      "##煅": 6373,
      "##宝": 6374,
      "##膘": 6375,
      "##南": 6376,
      "##哆": 6377,
      "##嗦": 6378,
      "##澜": 6379,
      "##冈": 6380,
      "##眺": 6381,
      "##喘": 6382,
      "##削": 6383,
      "##糕": 6384,
      "##骚": 6385,
      "##绞": 6386,
      "##摒": 6387,
      "##册": 6388,
      "##斥": 6389,
      "##梁": 6390,
      "##嗅": 6391,
      "##嬉": 6392,
      "##亢": 6393,
      "##羁": 6394,
      "##吟": 6395,
      "##渺": 6396,
      "##辩": 6397,
      "##镣": 6398,
      "##奴": 6399,
      "##氨": 6400,
      "##蘸": 6401,
      "##涂": 6402,
      "##秋": 6403,
      "##烫": 6404,
      "##葵": 6405,
      "##鞘": 6406,
      "##斩": 6407,
      "##呵": 6408,
      "##踩": 6409,
      "##稼": 6410,
      "##穗": 6411,
      "##贼": 6412,
      "##稻": 6413,
      "##疚": 6414,
      "##憎": 6415,
      "##殷": 6416,
      "##贩": 6417,
      "##驻": 6418,
      "##癫": 6419,
      "##溶": 6420,
      "##绚": 6421,
      "##晾": 6422,
      "##辟": 6423,
      "##奉": 6424,
      "##睿": 6425,
      "##魁": 6426,
      "##沽": 6427,
      "##砌": 6428,
      "##垒": 6429,
      "##洼": 6430,
      "##刽": 6431,
      "##墒": 6432,
      "##窥": 6433,
      "##挣": 6434,
      "##曳": 6435,
      "##绘": 6436,
      "##惑": 6437,
      "##栽": 6438,
      "##嵌": 6439,
      "##耙": 6440,
      "##蝴": 6441,
      "##蝶": 6442,
      "##芬": 6443,
      "##绷": 6444,
      "##竖": 6445,
      "##慨": 6446,
      "##拓": 6447,
      "##袄": 6448,
      "##倦": 6449,
      "##砰": 6450,
      "##稠": 6451,
      "##侍": 6452,
      "##辽": 6453,
      "##垦": 6454,
      "##牧": 6455,
      "##腔": 6456,
      "##粪": 6457,
      "##侃": 6458,
      "##溯": 6459,
      "##媳": 6460,
      "##娩": 6461,
      "##馨": 6462,
      "##祖": 6463,
      "##偎": 6464,
      "##勋": 6465,
      "##锹": 6466,
      "##桔": 6467,
      "##簧": 6468,
      "##秤": 6469,
      "##蔑": 6470,
      "##q": 6471,
      "##磅": 6472,
      "##蛮": 6473,
      "##康": 6474,
      "##汰": 6475,
      "##黏": 6476,
      "##沸": 6477,
      "##腾": 6478,
      "##汁": 6479,
      "##恭": 6480,
      "##礴": 6481,
      "##睽": 6482,
      "##扳": 6483,
      "##帐": 6484,
      "##槛": 6485,
      "##虔": 6486,
      "##驳": 6487,
      "##纱": 6488,
      "##馋": 6489,
      "##旭": 6490,
      "##忏": 6491,
      "##瑶": 6492,
      "##怯": 6493,
      "##眯": 6494,
      "##紊": 6495,
      "##赵": 6496,
      "##俏": 6497,
      "##蔚": 6498,
      "##聆": 6499,
      "##叙": 6500,
      "##瀚": 6501,
      "##牡": 6502,
      "##贞": 6503,
      "##蜷": 6504,
      "##逍": 6505,
      "##嚎": 6506,
      "##啕": 6507,
      "##瑟": 6508,
      "##啥": 6509,
      "##歪": 6510,
      "##妆": 6511,
      "##沌": 6512,
      "##订": 6513,
      "##锥": 6514,
      "##肴": 6515,
      "##厮": 6516,
      "##觑": 6517,
      "##妄": 6518,
      "##裱": 6519,
      "##碧": 6520,
      "##穆": 6521,
      "##剌": 6522,
      "##霍": 6523,
      "##巢": 6524,
      "##赴": 6525,
      "##顽": 6526,
      "##租": 6527,
      "##妇": 6528,
      "##颁": 6529,
      "##瞩": 6530,
      "##冠": 6531,
      "##赋": 6532,
      "##卒": 6533,
      "##酣": 6534,
      "##犀": 6535,
      "##葛": 6536,
      "##仲": 6537,
      "##吱": 6538,
      "##熏": 6539,
      "##淘": 6540,
      "##廉": 6541,
      "##卢": 6542,
      "##捉": 6543,
      "##②": 6544,
      "##泄": 6545,
      "##剖": 6546,
      "##屑": 6547,
      "##犷": 6548,
      "##奠": 6549,
      "##浊": 6550,
      "##酝": 6551,
      "##酿": 6552,
      "##胳": 6553,
      "##膊": 6554,
      "##拽": 6555,
      "##昧": 6556,
      "##愁": 6557,
      "##牙": 6558,
      "##鳍": 6559,
      "##刁": 6560,
      "##酪": 6561,
      "##鳞": 6562,
      "##评": 6563,
      "##恣": 6564,
      "##钓": 6565,
      "##汲": 6566,
      "##衍": 6567,
      "##兜": 6568,
      "##窑": 6569,
      "##矿": 6570,
      "##巷": 6571,
      "##杏": 6572,
      "##擂": 6573,
      "##珑": 6574,
      "##剔": 6575,
      "##湘": 6576,
      "##桦": 6577,
      "##币": 6578,
      "##盎": 6579,
      "##筛": 6580,
      "##殖": 6581,
      "##啃": 6582,
      "##垛": 6583,
      "##拨": 6584,
      "##愤": 6585,
      "##淙": 6586,
      "##瀑": 6587,
      "##诵": 6588,
      "##塘": 6589,
      "##肾": 6590,
      "##蒜": 6591,
      "##鸦": 6592,
      "##苛": 6593,
      "##贪": 6594,
      "##婪": 6595,
      "##甭": 6596,
      "##橘": 6597,
      "##衫": 6598,
      "##惚": 6599,
      "##缠": 6600,
      "##讪": 6601,
      "##咧": 6602,
      "##谴": 6603,
      "##乞": 6604,
      "##暇": 6605,
      "##桓": 6606,
      "##惶": 6607,
      "##彰": 6608,
      "##镀": 6609,
      "##痉": 6610,
      "##挛": 6611,
      "##帷": 6612,
      "##镙": 6613,
      "##阙": 6614,
      "##卸": 6615,
      "##咬": 6616,
      "##捎": 6617,
      "##闰": 6618,
      "##瓣": 6619,
      "##v": 6620,
      "##亏": 6621,
      "##辰": 6622,
      "##桩": 6623,
      "##瞧": 6624,
      "##戚": 6625,
      "##唇": 6626,
      "##兑": 6627,
      "##妓": 6628,
      "##档": 6629,
      "##崭": 6630,
      "##皑": 6631,
      "##歇": 6632,
      "##霏": 6633,
      "##嫡": 6634,
      "##侣": 6635,
      "##愧": 6636,
      "##牵": 6637,
      "##淑": 6638,
      "##呓": 6639,
      "##猿": 6640,
      "##仗": 6641,
      "##咖": 6642,
      "##啡": 6643,
      "##煮": 6644,
      "##恙": 6645,
      "##缴": 6646,
      "##矗": 6647,
      "##寐": 6648,
      "##诏": 6649,
      "##渔": 6650,
      "##轶": 6651,
      "##晗": 6652,
      "##傅": 6653,
      "##恫": 6654,
      "##碗": 6655,
      "##炼": 6656,
      "##钦": 6657,
      "##鸿": 6658,
      "##矫": 6659,
      "##瞳": 6660,
      "##弈": 6661,
      "##勘": 6662,
      "##侯": 6663,
      "##磐": 6664,
      "##陇": 6665,
      "##霄": 6666,
      "##砂": 6667,
      "##糖": 6668,
      "##楔": 6669,
      "##夭": 6670,
      "##唾": 6671,
      "##帜": 6672,
      "##吋": 6673,
      "##皙": 6674,
      "##俊": 6675,
      "##淤": 6676,
      "##桢": 6677,
      "##瘙": 6678,
      "##搂": 6679,
      "##粹": 6680,
      "##滨": 6681,
      "##埂": 6682,
      "##舌": 6683,
      "##碟": 6684,
      "##茂": 6685,
      "##哽": 6686,
      "##膏": 6687,
      "##桶": 6688,
      "##盥": 6689,
      "##磋": 6690,
      "##励": 6691,
      "##捶": 6692,
      "##肆": 6693,
      "##惮": 6694,
      "##锌": 6695,
      "##珊": 6696,
      "##蝇": 6697,
      "##旨": 6698,
      "##阡": 6699,
      "##屿": 6700,
      "##筋": 6701,
      "##颖": 6702,
      "##骇": 6703,
      "##棺": 6704,
      "##募": 6705,
      "##郊": 6706,
      "##颂": 6707,
      "##藉": 6708,
      "##丐": 6709,
      "##蜂": 6710,
      "##寡": 6711,
      "##仙": 6712,
      "##蹬": 6713,
      "##捞": 6714,
      "##凤": 6715,
      "##炕": 6716,
      "##岭": 6717,
      "##]": 6718,
      "##畸": 6719,
      "##烷": 6720,
      "##嘉": 6721,
      "##篡": 6722,
      "##磷": 6723,
      "##鹰": 6724,
      "##惰": 6725,
      "##揉": 6726,
      "##魄": 6727,
      "##诛": 6728,
      "##噬": 6729,
      "##唔": 6730,
      "##丫": 6731,
      "##痊": 6732,
      "##黔": 6733,
      "##癖": 6734,
      "##椭": 6735,
      "##卿": 6736,
      "##绸": 6737,
      "##缎": 6738,
      "##硅": 6739,
      "##苟": 6740,
      "##怫": 6741,
      "##鲸": 6742,
      "##庙": 6743,
      "##霸": 6744,
      "##卧": 6745,
      "##睬": 6746,
      "##卦": 6747,
      "##党": 6748,
      "##伎": 6749,
      "##扉": 6750,
      "##踵": 6751,
      "##兽": 6752,
      "##翰": 6753,
      "##绊": 6754,
      "##盗": 6755,
      "##骷": 6756,
      "##髅": 6757,
      "##颚": 6758,
      "##竺": 6759,
      "##霉": 6760,
      "##阂": 6761,
      "##诊": 6762,
      "##―": 6763,
      "##杭": 6764,
      "##暑": 6765,
      "##轿": 6766,
      "##耻": 6767,
      "##罐": 6768,
      "##舀": 6769,
      "##啐": 6770,
      "##涛": 6771,
      "##镊": 6772,
      "##吠": 6773,
      "##馈": 6774,
      "##饥": 6775,
      "##函": 6776,
      "##猖": 6777,
      "##魅": 6778,
      "##顷": 6779,
      "##啰": 6780,
      "##驰": 6781,
      "##捅": 6782,
      "##仆": 6783,
      "##辣": 6784,
      "##浏": 6785,
      "##惹": 6786,
      "##姑": 6787,
      "##尝": 6788,
      "##税": 6789,
      "##昔": 6790,
      "##僧": 6791,
      "##棘": 6792,
      "##轧": 6793,
      "##寥": 6794,
      "##栗": 6795,
      "##漪": 6796,
      "##肮": 6797,
      "##趴": 6798,
      "##跋": 6799,
      "##拧": 6800,
      "##汹": 6801,
      "##雀": 6802,
      "##柠": 6803,
      "##檬": 6804,
      "##撰": 6805,
      "##郡": 6806,
      "##鼎": 6807,
      "##飚": 6808,
      "##酸": 6809,
      "##蜻": 6810,
      "##潭": 6811,
      "##鞭": 6812,
      "##柿": 6813,
      "##颔": 6814,
      "##邓": 6815,
      "##蟾": 6816,
      "##蕾": 6817,
      "##詹": 6818,
      "##怡": 6819,
      "##莽": 6820,
      "##贺": 6821,
      "##犄": 6822,
      "##攥": 6823,
      "##飒": 6824,
      "##衅": 6825,
      "##劈": 6826,
      "##晖": 6827,
      "##冶": 6828,
      "##蜗": 6829,
      "##霜": 6830,
      "##乙": 6831,
      "##芽": 6832,
      "##虎": 6833,
      "##凳": 6834,
      "##颓": 6835,
      "##堕": 6836,
      "##疙": 6837,
      "##瘩": 6838,
      "##屈": 6839,
      "##沓": 6840,
      "##瘾": 6841,
      "##拱": 6842,
      "##孕": 6843,
      "##抉": 6844,
      "##绰": 6845,
      "##鄢": 6846,
      "##婷": 6847,
      "##颅": 6848,
      "##椎": 6849,
      "##咔": 6850,
      "##嚓": 6851,
      "##拣": 6852,
      "##屁": 6853,
      "##夷": 6854,
      "##褶": 6855,
      "##\"": 6856,
      "##皆": 6857,
      "##峙": 6858,
      "##钳": 6859,
      "##茅": 6860,
      "##勺": 6861,
      "##拭": 6862,
      "##榔": 6863,
      "##腋": 6864,
      "##坯": 6865,
      "##霓": 6866,
      "##掸": 6867,
      "##胫": 6868,
      "##慷": 6869,
      "##钛": 6870,
      "##蝈": 6871,
      "##崎": 6872,
      "##吩": 6873,
      "##咐": 6874,
      "##柏": 6875,
      "##豚": 6876,
      "##懊": 6877,
      "##饵": 6878,
      "##祸": 6879,
      "##捐": 6880,
      "##尿": 6881,
      "##冤": 6882,
      "##昕": 6883,
      "##攫": 6884,
      "##瘠": 6885,
      "##叽": 6886,
      "##喳": 6887,
      "##倪": 6888,
      "##幺": 6889,
      "##伍": 6890,
      "##诬": 6891,
      "##杳": 6892,
      "##昆": 6893,
      "##诧": 6894,
      "##耿": 6895,
      "##枫": 6896,
      "##邃": 6897,
      "##讳": 6898,
      "##嘤": 6899,
      "##赚": 6900,
      "##胖": 6901,
      "##垄": 6902,
      "##炯": 6903,
      "##佐": 6904,
      "##番": 6905,
      "##婉": 6906,
      "##锢": 6907,
      "##窜": 6908,
      "##捏": 6909,
      "##皓": 6910,
      "##鹤": 6911,
      "##厥": 6912,
      "##泞": 6913,
      "##漩": 6914,
      "##芭": 6915,
      "##嚣": 6916,
      "##氦": 6917,
      "##缄": 6918,
      "##瞟": 6919,
      "##栋": 6920,
      "##糙": 6921,
      "##膝": 6922,
      "##锣": 6923,
      "##撮": 6924,
      "##婊": 6925,
      "##泻": 6926,
      "##飓": 6927,
      "##蠢": 6928,
      "##绢": 6929,
      "##敛": 6930,
      "##饪": 6931,
      "##汛": 6932,
      "##纺": 6933,
      "##拇": 6934,
      "##裔": 6935,
      "##菱": 6936,
      "##窟": 6937,
      "##啼": 6938,
      "##嘟": 6939,
      "##诲": 6940,
      "##虏": 6941,
      "##咦": 6942,
      "##榻": 6943,
      "##褒": 6944,
      "##辜": 6945,
      "##粥": 6946,
      "##橙": 6947,
      "##诠": 6948,
      "##瘸": 6949,
      "##津": 6950,
      "##喂": 6951,
      "##粱": 6952,
      "##旺": 6953,
      "##哺": 6954,
      "##嫁": 6955,
      "##闺": 6956,
      "##苹": 6957,
      "##畴": 6958,
      "##泌": 6959,
      "##睫": 6960,
      "##舶": 6961,
      "##缭": 6962,
      "##恺": 6963,
      "##棕": 6964,
      "##蛟": 6965,
      "##缅": 6966,
      "##腥": 6967,
      "##褛": 6968,
      "##仝": 6969,
      "##剿": 6970,
      "##怍": 6971,
      "##肘": 6972,
      "##拄": 6973,
      "##胯": 6974,
      "##隶": 6975,
      "##殡": 6976,
      "##俭": 6977,
      "##梢": 6978,
      "##凿": 6979,
      "##栈": 6980,
      "##邑": 6981,
      "##桅": 6982,
      "##俑": 6983,
      "##浦": 6984,
      "##娓": 6985,
      "##嘁": 6986,
      "##赢": 6987,
      "##胃": 6988,
      "##『": 6989,
      "##珂": 6990,
      "##洽": 6991,
      "##狩": 6992,
      "##蹩": 6993,
      "##屎": 6994,
      "##蚜": 6995,
      "##蚕": 6996,
      "##澎": 6997,
      "##湃": 6998,
      "##弩": 6999,
      "##颇": 7000,
      "##枷": 7001,
      "##嗔": 7002,
      "##扼": 7003,
      "##爪": 7004,
      "##怠": 7005,
      "##扛": 7006,
      "##券": 7007,
      "##ⅰ": 7008,
      "##泳": 7009,
      "##／": 7010,
      "##绽": 7011,
      "##恻": 7012,
      "##孽": 7013,
      "##襟": 7014,
      "##钾": 7015,
      "##辖": 7016,
      "##贤": 7017,
      "##晤": 7018,
      "##橱": 7019,
      "##谍": 7020,
      "##祗": 7021,
      "##肠": 7022,
      "##娶": 7023,
      "##酱": 7024,
      "##挚": 7025,
      "##腻": 7026,
      "##胴": 7027,
      "##嶙": 7028,
      "##峋": 7029,
      "##秉": 7030,
      "##弭": 7031,
      "##虐": 7032,
      "##噗": 7033,
      "##廷": 7034,
      "##雹": 7035,
      "##茨": 7036,
      "##崛": 7037,
      "##鱿": 7038,
      "##谑": 7039,
      "##舵": 7040,
      "##蔫": 7041,
      "##π": 7042,
      "##ε": 7043,
      "##亩": 7044,
      "##咸": 7045,
      "##咄": 7046,
      "##镝": 7047,
      "##蚪": 7048,
      "##逗": 7049,
      "##遛": 7050,
      "##沦": 7051,
      "##荫": 7052,
      "##韵": 7053,
      "##螵": 7054,
      "##霆": 7055,
      "##掐": 7056,
      "##渲": 7057,
      "##雩": 7058,
      "##揪": 7059,
      "##淀": 7060,
      "##沛": 7061,
      "##掣": 7062,
      "##峨": 7063,
      "##砺": 7064,
      "##毋": 7065,
      "##揶": 7066,
      "##譬": 7067,
      "##愕": 7068,
      "##剽": 7069,
      "##倩": 7070,
      "##绎": 7071,
      "##郎": 7072,
      "##捣": 7073,
      "##沁": 7074,
      "##脾": 7075,
      "##孰": 7076,
      "##瓮": 7077,
      "##芜": 7078,
      "##咝": 7079,
      "##鞍": 7080,
      "##蹭": 7081,
      "##遁": 7082,
      "##竿": 7083,
      "##潦": 7084,
      "##庶": 7085,
      "##>": 7086,
      "##谊": 7087,
      "##筝": 7088,
      "##邯": 7089,
      "##霾": 7090,
      "##蹦": 7091,
      "##瞌": 7092,
      "##碴": 7093,
      "##猪": 7094,
      "##馅": 7095,
      "##饺": 7096,
      "##汐": 7097,
      "##讶": 7098,
      "##锰": 7099,
      "##榨": 7100,
      "##掰": 7101,
      "##璀": 7102,
      "##璨": 7103,
      "##囔": 7104,
      "##氯": 7105,
      "##镍": 7106,
      "##漱": 7107,
      "##娼": 7108,
      "##巅": 7109,
      "##腈": 7110,
      "##悻": 7111,
      "##谩": 7112,
      "##〕": 7113,
      "##斌": 7114,
      "##轭": 7115,
      "##茸": 7116,
      "##侠": 7117,
      "##迥": 7118,
      "##榴": 7119,
      "##毙": 7120,
      "##沾": 7121,
      "##×": 7122,
      "##儒": 7123,
      "##聋": 7124,
      "##硝": 7125,
      "##骏": 7126,
      "##屐": 7127,
      "##誊": 7128,
      "##哝": 7129,
      "##℃": 7130,
      "##喋": 7131,
      "##嚷": 7132,
      "##瘴": 7133,
      "##宋": 7134,
      "##捍": 7135,
      "##仑": 7136,
      "##蜿": 7137,
      "##蜒": 7138,
      "##璧": 7139,
      "##抨": 7140,
      "##彭": 7141,
      "##喇": 7142,
      "##叭": 7143,
      "##黝": 7144,
      "##槌": 7145,
      "##茬": 7146,
      "##窘": 7147,
      "##臭": 7148,
      "##潞": 7149,
      "##绅": 7150,
      "##熠": 7151,
      "##谬": 7152,
      "##怏": 7153,
      "##咙": 7154,
      "##硫": 7155,
      "##聂": 7156,
      "##泽": 7157,
      "##渥": 7158,
      "##瞻": 7159,
      "##脐": 7160,
      "##畜": 7161,
      "##羟": 7162,
      "##槟": 7163,
      "##啮": 7164,
      "##仃": 7165,
      "##－": 7166,
      "##垢": 7167,
      "##橄": 7168,
      "##榄": 7169,
      "##帧": 7170,
      "##佣": 7171,
      "##垫": 7172,
      "##谵": 7173,
      "##忡": 7174,
      "##瘁": 7175,
      "##兔": 7176,
      "##猝": 7177,
      "##徙": 7178,
      "##罔": 7179,
      "##撬": 7180,
      "##迢": 7181,
      "##藕": 7182,
      "##剃": 7183,
      "##驼": 7184,
      "##菠": 7185,
      "##髓": 7186,
      "##噜": 7187,
      "##嘻": 7188,
      "##匣": 7189,
      "##礁": 7190,
      "##榭": 7191,
      "##宵": 7192,
      "##涣": 7193,
      "##廖": 7194,
      "##亘": 7195,
      "##敷": 7196,
      "##惆": 7197,
      "##怅": 7198,
      "##钧": 7199,
      "##芎": 7200,
      "##唪": 7201,
      "##札": 7202,
      "##卞": 7203,
      "##姣": 7204,
      "##蕉": 7205,
      "##濒": 7206,
      "##寓": 7207,
      "##凛": 7208,
      "##镪": 7209,
      "##凋": 7210,
      "##镂": 7211,
      "##惺": 7212,
      "##忪": 7213,
      "##蝉": 7214,
      "##仞": 7215,
      "##殚": 7216,
      "##霭": 7217,
      "##鼾": 7218,
      "##恬": 7219,
      "##羲": 7220,
      "##冕": 7221,
      "##赐": 7222,
      "##湛": 7223,
      "##匮": 7224,
      "##芳": 7225,
      "##掇": 7226,
      "##旬": 7227,
      "##幔": 7228,
      "##谙": 7229,
      "##侏": 7230,
      "##颐": 7231,
      "##吾": 7232,
      "##噶": 7233,
      "##冉": 7234,
      "##饼": 7235,
      "##啜": 7236,
      "##蛸": 7237,
      "##钩": 7238,
      "##嘹": 7239,
      "##蝌": 7240,
      "##醛": 7241,
      "##蚯": 7242,
      "##蚓": 7243,
      "##匿": 7244,
      "##罢": 7245,
      "##趾": 7246,
      "##葺": 7247,
      "##颀": 7248,
      "##杠": 7249,
      "##霎": 7250,
      "##跺": 7251,
      "##弋": 7252,
      "##凯": 7253,
      "##邸": 7254,
      "##筐": 7255,
      "##蟹": 7256,
      "##呛": 7257,
      "##孝": 7258,
      "##羔": 7259,
      "##菩": 7260,
      "##嗖": 7261,
      "##屹": 7262,
      "##诫": 7263,
      "##碘": 7264,
      "##钴": 7265,
      "##溏": 7266,
      "##锄": 7267,
      "##锨": 7268,
      "##鼍": 7269,
      "##萧": 7270,
      "##乖": 7271,
      "##戾": 7272,
      "##盹": 7273,
      "##爹": 7274,
      "##辄": 7275,
      "##陕": 7276,
      "##飙": 7277,
      "##啾": 7278,
      "##眷": 7279,
      "##醋": 7280,
      "##禾": 7281,
      "##纭": 7282,
      "##昵": 7283,
      "##莺": 7284,
      "##戟": 7285,
      "##珥": 7286,
      "##狍": 7287,
      "##铐": 7288,
      "##蹾": 7289,
      "##蛙": 7290,
      "##鹜": 7291,
      "##睦": 7292,
      "##鸭": 7293,
      "##咪": 7294,
      "##窿": 7295,
      "##遂": 7296,
      "##刨": 7297,
      "##遴": 7298,
      "##禽": 7299,
      "##谧": 7300,
      "##偬": 7301,
      "##③": 7302,
      "##④": 7303,
      "##⑤": 7304,
      "##臼": 7305,
      "##岌": 7306,
      "##驮": 7307,
      "##鬈": 7308,
      "##咯": 7309,
      "##壕": 7310,
      "##吝": 7311,
      "##啬": 7312,
      "##仟": 7313,
      "##胎": 7314,
      "##愠": 7315,
      "##樟": 7316,
      "##柞": 7317,
      "##榆": 7318,
      "##栎": 7319,
      "##矶": 7320,
      "##瓢": 7321,
      "##痪": 7322,
      "##碱": 7323,
      "##垠": 7324,
      "##莲": 7325,
      "##桁": 7326,
      "##曝": 7327,
      "##驹": 7328,
      "##瑕": 7329,
      "##疵": 7330,
      "##蔡": 7331,
      "##涅": 7332,
      "##皈": 7333,
      "##胚": 7334,
      "##唏": 7335,
      "##嘘": 7336,
      "##磺": 7337,
      "##踌": 7338,
      "##祠": 7339,
      "##骋": 7340,
      "##幄": 7341,
      "##髟": 7342,
      "##橇": 7343,
      "##檐": 7344,
      "##辘": 7345,
      "##懈": 7346,
      "##煦": 7347,
      "##椰": 7348,
      "##铛": 7349,
      "##坷": 7350,
      "##刍": 7351,
      "##蜜": 7352,
      "##祁": 7353,
      "##芥": 7354,
      "##抿": 7355,
      "##祟": 7356,
      "##皲": 7357,
      "##氓": 7358,
      "##厩": 7359,
      "##嗣": 7360,
      "##舢": 7361,
      "##啤": 7362,
      "##翩": 7363,
      "##搔": 7364,
      "##揍": 7365,
      "##铰": 7366,
      "##瘪": 7367,
      "##踢": 7368,
      "##蝠": 7369,
      "##贱": 7370,
      "##侮": 7371,
      "##寨": 7372,
      "##氕": 7373,
      "##氘": 7374,
      "##氚": 7375,
      "##栉": 7376,
      "##峦": 7377,
      "##薯": 7378,
      "##椒": 7379,
      "##驴": 7380,
      "##。”": 7381,
      "##一个": 7382,
      "##，这": 7383,
      "##没有": 7384,
      "##，但": 7385,
      "##，他": 7386,
      "##，我": 7387,
      "##？”": 7388,
      "##什么": 7389,
      "##。。": 7390,
      "##了，": 7391,
      "##自己": 7392,
      "##世界": 7393,
      "##的，": 7394,
      "##现在": 7395,
      "##可能": 7396,
      "##已经": 7397,
      "##太空": 7398,
      "##太阳": 7399,
      "##程心": 7400,
      "##，在": 7401,
      "##知道": 7402,
      "##看到": 7403,
      "##这个": 7404,
      "##他们": 7405,
      "##：“": 7406,
      "##了。": 7407,
      "##罗辑": 7408,
      "##，“": 7409,
      "##人类": 7410,
      "##中的": 7411,
      "##我们": 7412,
      "##三体": 7413,
      "##了一": 7414,
      "##宇宙": 7415,
      "##地球": 7416,
      "##，那": 7417,
      "##的人": 7418,
      "##就是": 7419,
      "##的一": 7420,
      "##可以": 7421,
      "##中，": 7422,
      "##来，": 7423,
      "##不是": 7424,
      "##时间": 7425,
      "##时，": 7426,
      "##后，": 7427,
      "##……": 7428,
      "##，她": 7429,
      "##你们": 7430,
      "##！”": 7431,
      "##这样": 7432,
      "##上的": 7433,
      "##，只": 7434,
      "##说。": 7435,
      "##飞船": 7436,
      "##”号": 7437,
      "##文明": 7438,
      "##舰队": 7439,
      "##如果": 7440,
      "##出现": 7441,
      "##的。": 7442,
      "##两个": 7443,
      "##到了": 7444,
      "##那个": 7445,
      "##是一": 7446,
      "##部分": 7447,
      "##大的": 7448,
      "##。这": 7449,
      "##开始": 7450,
      "##，他们": 7451,
      "##，你": 7452,
      "##，不": 7453,
      "##有一": 7454,
      "##，它": 7455,
      "##了。”": 7456,
      "##信息": 7457,
      "##。。。。": 7458,
      "##发现": 7459,
      "##东西": 7460,
      "##最后": 7461,
      "##，我们": 7462,
      "##汪淼": 7463,
      "##上，": 7464,
      "##系统": 7465,
      "##文洁": 7466,
      "##说：“": 7467,
      "##所有": 7468,
      "##一样": 7469,
      "##进行": 7470,
      "##还是": 7471,
      "##空间": 7472,
      "##技术": 7473,
      "##他的": 7474,
      "##吗？”": 7475,
      "##，也": 7476,
      "##感觉": 7477,
      "##计划": 7478,
      "##自己的": 7479,
      "##是一个": 7480,
      "##。在": 7481,
      "##，而": 7482,
      "“我": 7483,
      "##都是": 7484,
      "##，一": 7485,
      "##这种": 7486,
      "##太阳系": 7487,
      "##——": 7488,
      "##一次": 7489,
      "##看着": 7490,
      "##这里": 7491,
      "##的大": 7492,
      "##，是": 7493,
      "##研究": 7494,
      "##很快": 7495,
      "##人的": 7496,
      "##来的": 7497,
      "##，像": 7498,
      "##行星": 7499,
      "##世纪": 7500,
      "##面壁": 7501,
      "##智子": 7502,
      "##因为": 7503,
      "##面的": 7504,
      "“你": 7505,
      "##的。”": 7506,
      "##说，": 7507,
      "##任何": 7508,
      "##，就": 7509,
      "##然后": 7510,
      "##真的": 7511,
      "##。但": 7512,
      "##存在": 7513,
      "##来。": 7514,
      "##引力": 7515,
      "##还有": 7516,
      "##怎么": 7517,
      "##应该": 7518,
      "##需要": 7519,
      "##光速": 7520,
      "##发射": 7521,
      "##问题": 7522,
      "##叶文洁": 7523,
      "##时代": 7524,
      "##的事": 7525,
      "##只是": 7526,
      "##下，": 7527,
      "##孩子": 7528,
      "##。他": 7529,
      "##工作": 7530,
      "##的是": 7531,
      "##北海": 7532,
      "##消失": 7533,
      "##只有": 7534,
      "##发出": 7535,
      "##人们": 7536,
      "##能够": 7537,
      "##当然": 7538,
      "##恒星": 7539,
      "##这些": 7540,
      "##科学": 7541,
      "程心": 7542,
      "##吗？": 7543,
      "##产生": 7544,
      "##所以": 7545,
      "##，有": 7546,
      "##完全": 7547,
      "##变成": 7548,
      "##一直": 7549,
      "##目光": 7550,
      "##生活": 7551,
      "##的那": 7552,
      "##不可能": 7553,
      "##出了": 7554,
      "##，现在": 7555,
      "##速度": 7556,
      "“那": 7557,
      "##天明": 7558,
      "##它们": 7559,
      "##社会": 7560,
      "##不知道": 7561,
      "##的地": 7562,
      "##不到": 7563,
      "##方向": 7564,
      "“这": 7565,
      "##她的": 7566,
      "##显示": 7567,
      "##甚至": 7568,
      "##城市": 7569,
      "##进入": 7570,
      "##，对": 7571,
      "##水滴": 7572,
      "##问。": 7573,
      "##了一个": 7574,
      "##三个": 7575,
      "##二维": 7576,
      "##不同": 7577,
      "##三体世界": 7578,
      "##状态": 7579,
      "##黑暗": 7580,
      "##发生": 7581,
      "##声音": 7582,
      "##认为": 7583,
      "罗辑": 7584,
      "##成为": 7585,
      "##距离": 7586,
      "##去，": 7587,
      "##突然": 7588,
      "##加速": 7589,
      "##，其": 7590,
      "##目标": 7591,
      "##吧。”": 7592,
      "##是在": 7593,
      "##不能": 7594,
      "##着，": 7595,
      "##这么": 7596,
      "##面壁者": 7597,
      "##一帆": 7598,
      "##位置": 7599,
      "##计算": 7600,
      "##，这是": 7601,
      "##这一": 7602,
      "##起来": 7603,
      "##冬眠": 7604,
      "##思想": 7605,
      "##只能": 7606,
      "##选择": 7607,
      "##周围": 7608,
      "##处于": 7609,
      "##注意": 7610,
      "##云天明": 7611,
      "##色的": 7612,
      "##同时": 7613,
      "##不会": 7614,
      "##许多": 7615,
      "##正在": 7616,
      "##的话": 7617,
      "##一起": 7618,
      "##前的": 7619,
      "##那些": 7620,
      "##，然后": 7621,
      "##看看": 7622,
      "##几乎": 7623,
      "##由于": 7624,
      "##肯定": 7625,
      "##想象": 7626,
      "##。她": 7627,
      "##，如果": 7628,
      "##眼睛": 7629,
      "##其他": 7630,
      "“是": 7631,
      "##，以": 7632,
      "##也是": 7633,
      "##仿佛": 7634,
      "##人，": 7635,
      "##感到": 7636,
      "##点头": 7637,
      "##大史": 7638,
      "##，从": 7639,
      "##章北海": 7640,
      "##立刻": 7641,
      "##继续": 7642,
      "##通过": 7643,
      "##十分": 7644,
      "##，这个": 7645,
      "##那里": 7646,
      "##联合": 7647,
      "##纪元": 7648,
      "##的东西": 7649,
      "##长的": 7650,
      "##生命": 7651,
      "##战舰": 7652,
      "##起来，": 7653,
      "##上去": 7654,
      "##控制": 7655,
      "##即使": 7656,
      "##似乎": 7657,
      "##说，“": 7658,
      "##。。。。。。": 7659,
      "##星环": 7660,
      "##自然": 7661,
      "##整个": 7662,
      "##关一帆": 7663,
      "##的光": 7664,
      "##回答": 7665,
      "##前，": 7666,
      "##第一": 7667,
      "##轨道": 7668,
      "##的太空": 7669,
      "##时候": 7670,
      "##来自": 7671,
      "aa": 7672,
      "##出的": 7673,
      "##亚兹": 7674,
      "##迪亚兹": 7675,
      "##，只是": 7676,
      "##史强": 7677,
      "##会议": 7678,
      "##后的": 7679,
      "##你的": 7680,
      "##运行": 7681,
      "##一切": 7682,
      "##它的": 7683,
      "##我的": 7684,
      "##一片": 7685,
      "##再次": 7686,
      "##中。": 7687,
      "##好像": 7688,
      "##，程心": 7689,
      "##一种": 7690,
      "##有些": 7691,
      "##虽然": 7692,
      "##希望": 7693,
      "##，使": 7694,
      "##点点头": 7695,
      "##第二": 7696,
      "##无法": 7697,
      "##。“": 7698,
      "##为了": 7699,
      "##不过": 7700,
      "##的小": 7701,
      "##在这": 7702,
      "##一些": 7703,
      "##基地": 7704,
      "##公主": 7705,
      "##安全": 7706,
      "##告诉": 7707,
      "##，与": 7708,
      "##有人": 7709,
      "##历史": 7710,
      "##，您": 7711,
      "##出来": 7712,
      "##探测": 7713,
      "##观测": 7714,
      "##显然": 7715,
      "##，没有": 7716,
      "##地面": 7717,
      "##那么": 7718,
      "##情况": 7719,
      "##呢？”": 7720,
      "##有一个": 7721,
      "##工程": 7722,
      "##几个": 7723,
      "##第一次": 7724,
      "##千米": 7725,
      "##渐渐": 7726,
      "##……”": 7727,
      "##，把": 7728,
      "##恩斯": 7729,
      "##，并": 7730,
      "##，因为": 7731,
      "##也不": 7732,
      "##木星": 7733,
      "##离开": 7734,
      "##过去": 7735,
      "##摇头": 7736,
      "##看上去": 7737,
      "##星星": 7738,
      "##，它们": 7739,
      "##的时间": 7740,
      "##维德": 7741,
      "##森林": 7742,
      "##威慑": 7743,
      "##巨大的": 7744,
      "##二十": 7745,
      "##，所以": 7746,
      "##以前": 7747,
      "##其实": 7748,
      "##小的": 7749,
      "##内部": 7750,
      "##联合国": 7751,
      "##过程": 7752,
      "##完成": 7753,
      "##力量": 7754,
      "##蓝色": 7755,
      "##理论": 7756,
      "##人类的": 7757,
      "##，”": 7758,
      "##物理": 7759,
      "##之间": 7760,
      "##是什么": 7761,
      "##都在": 7762,
      "##雷迪亚兹": 7763,
      "##建立": 7764,
      "##计算机": 7765,
      "##时的": 7766,
      "##到的": 7767,
      "##那样": 7768,
      "##变得": 7769,
      "##下的": 7770,
      "##，大": 7771,
      "##作为": 7772,
      "##形成": 7773,
      "##子，": 7774,
      "##重要": 7775,
      "##飞行": 7776,
      "##中心": 7777,
      "##不可": 7778,
      "##三维": 7779,
      "##另一": 7780,
      "##物质": 7781,
      "##首先": 7782,
      "##辐射": 7783,
      "##生存": 7784,
      "##表面": 7785,
      "##世界的": 7786,
      "##后来": 7787,
      "##到达": 7788,
      "##博士": 7789,
      "##图像": 7790,
      "##仍然": 7791,
      "##天空": 7792,
      "##想到": 7793,
      "##之一": 7794,
      "##接着": 7795,
      "##看到了": 7796,
      "##这样的": 7797,
      "##，罗辑": 7798,
      "##下去": 7799,
      "##战争": 7800,
      "##确实": 7801,
      "##着一": 7802,
      "##上。": 7803,
      "##意义": 7804,
      "##主要": 7805,
      "##摇摇头": 7806,
      "##他们的": 7807,
      "##红岸": 7808,
      "##精神": 7809,
      "##毁灭": 7810,
      "##永远": 7811,
      "##结果": 7812,
      "##战略": 7813,
      "##文明的": 7814,
      "##目前": 7815,
      "##小时": 7816,
      "##能力": 7817,
      "##阳光": 7818,
      "##金属": 7819,
      "##，这种": 7820,
      "##作用": 7821,
      "##东方": 7822,
      "##才能": 7823,
      "##沉默": 7824,
      "##启动": 7825,
      "##万有": 7826,
      "##为什么": 7827,
      "##刚才": 7828,
      "##必须": 7829,
      "##简单": 7830,
      "##复杂": 7831,
      "##下来": 7832,
      "##航行": 7833,
      "##攻击": 7834,
      "##，让": 7835,
      "##一般": 7836,
      "##唯一": 7837,
      "##代表": 7838,
      "##相信": 7839,
      "##建筑": 7840,
      "##听到": 7841,
      "##故事": 7842,
      "##，每": 7843,
      "##觉得": 7844,
      "##起了": 7845,
      "##像一": 7846,
      "##移民": 7847,
      "##相当": 7848,
      "##的世界": 7849,
      "##里，": 7850,
      "##基础": 7851,
      "##现实": 7852,
      "##窗口": 7853,
      "##希恩斯": 7854,
      "##，他的": 7855,
      "##这是": 7856,
      "##军官": 7857,
      "##全部": 7858,
      "##真正": 7859,
      "“不": 7860,
      "##。当": 7861,
      "##国际": 7862,
      "##除了": 7863,
      "##背景": 7864,
      "##发动": 7865,
      "##确定": 7866,
      "##理解": 7867,
      "##普通": 7868,
      "##。我": 7869,
      "##说话": 7870,
      "##聚变": 7871,
      "##政府": 7872,
      "##都没有": 7873,
      "##多的": 7874,
      "##丁仪": 7875,
      "##形状": 7876,
      "##外面": 7877,
      "##主义": 7878,
      "##万有引力": 7879,
      "##。程心": 7880,
      "##，很": 7881,
      "##天文": 7882,
      "##意识": 7883,
      "##另一个": 7884,
      "##aa": 7885,
      "##组织": 7886,
      "##，只有": 7887,
      "##结构": 7888,
      "##王星": 7889,
      "##刚刚": 7890,
      "##太空城": 7891,
      "##是个": 7892,
      "##责任": 7893,
      "##危机": 7894,
      "##过了": 7895,
      "##推进": 7896,
      "##，都": 7897,
      "##出一": 7898,
      "##得到": 7899,
      "##她们": 7900,
      "##成了": 7901,
      "##防御": 7902,
      "##四维": 7903,
      "##恢复": 7904,
      "##的巨": 7905,
      "##使用": 7906,
      "##说的": 7907,
      "##平面": 7908,
      "##直接": 7909,
      "##发展": 7910,
      "##爆炸": 7911,
      "##句话": 7912,
      "##人都": 7913,
      "##三十": 7914,
      "##动的": 7915,
      "##国家": 7916,
      "##年轻": 7917,
      "##的地方": 7918,
      "##，当": 7919,
      "##面对": 7920,
      "##武器": 7921,
      "汪淼": 7922,
      "##透明": 7923,
      "##一点": 7924,
      "##下来，": 7925,
      "##并不": 7926,
      "##五十": 7927,
      "##观察": 7928,
      "##之外": 7929,
      "##泰勒": 7930,
      "##，这些": 7931,
      "“我们": 7932,
      "##。现在": 7933,
      "##的信息": 7934,
      "##，甚至": 7935,
      "##一下": 7936,
      "##正常": 7937,
      "##决定": 7938,
      "##，还": 7939,
      "##一百": 7940,
      "##对于": 7941,
      "##打击": 7942,
      "##环境": 7943,
      "##的一个": 7944,
      "##以后": 7945,
      "##不要": 7946,
      "##变化": 7947,
      "##明白": 7948,
      "##学家": 7949,
      "##关系": 7950,
      "##父亲": 7951,
      "##减速": 7952,
      "##的一切": 7953,
      "##大部分": 7954,
      "##长时间": 7955,
      "##真实": 7956,
      "##结束": 7957,
      "##年前": 7958,
      "##发动机": 7959,
      "##四个": 7960,
      "##考虑": 7961,
      "##探测器": 7962,
      "##。他们": 7963,
      "##的最": 7964,
      "##基本": 7965,
      "##于是": 7966,
      "##体的": 7967,
      "##00": 7968,
      "##展开": 7969,
      "##，最": 7970,
      "##天线": 7971,
      "##多少": 7972,
      "##舰长": 7973,
      "##太空中": 7974,
      "##引力波": 7975,
      "##，你们": 7976,
      "##，还有": 7977,
      "##有的": 7978,
      "##至少": 7979,
      "##苏醒": 7980,
      "##方式": 7981,
      "##并没有": 7982,
      "##站在": 7983,
      "##都不": 7984,
      "##分钟": 7985,
      "##包括": 7986,
      "##太空艇": 7987,
      "##宇宙的": 7988,
      "##，要": 7989,
      "##人。": 7990,
      "##大，": 7991,
      "##也许": 7992,
      "##随着": 7993,
      "##可能是": 7994,
      "##，而是": 7995,
      "叶文洁": 7996,
      "##以为": 7997,
      "##看，": 7998,
      "##成功": 7999,
      "##得很": 8000,
      "##也没有": 8001,
      "##容易": 8002,
      "##旁边": 8003,
      "##的速度": 8004,
      "##，用": 8005,
      "##现代": 8006,
      "##航天": 8007,
      "##梭机": 8008,
      "##所有的": 8009,
      "##面壁计划": 8010,
      "##的心": 8011,
      "##来越": 8012,
      "##出来，": 8013,
      "##银河": 8014,
      "##转向": 8015,
      "##一定": 8016,
      "##地上": 8017,
      "##接触": 8018,
      "##画面": 8019,
      "##机会": 8020,
      "##越来越": 8021,
      "##，比": 8022,
      "##看不": 8023,
      "##很多": 8024,
      "##另外": 8025,
      "##充满": 8026,
      "##，这里": 8027,
      "##宇宙中": 8028,
      "##，那是": 8029,
      "##蓝色空间": 8030,
      "##外星": 8031,
      "##失败": 8032,
      "##原因": 8033,
      "##特别": 8034,
      "##接近": 8035,
      "##年的": 8036,
      "##坐在": 8037,
      "##思维": 8038,
      "##政治": 8039,
      "##危险": 8040,
      "##有什么": 8041,
      "##大利": 8042,
      "##动，": 8043,
      "##文斯": 8044,
      "##电磁": 8045,
      "##吧，": 8046,
      "##打开": 8047,
      "##量的": 8048,
      "##主席": 8049,
      "##广播": 8050,
      "##呢？": 8051,
      "##，这样": 8052,
      "##后面": 8053,
      "##地方": 8054,
      "##要求": 8055,
      "##内容": 8056,
      "##回到": 8057,
      "##终于": 8058,
      "##资源": 8059,
      "##清楚": 8060,
      "##努力": 8061,
      "##黑暗森林": 8062,
      "##，可": 8063,
      "##在这里": 8064,
      "##根本": 8065,
      "##操作": 8066,
      "##壁人": 8067,
      "##的位置": 8068,
      "##都有": 8069,
      "##上了": 8070,
      "##无数": 8071,
      "##失去": 8072,
      "##新的": 8073,
      "##缓缓": 8074,
      "##上面": 8075,
      "##道。": 8076,
      "##穿梭机": 8077,
      "##先生": 8078,
      "##庄颜": 8079,
      "##指挥": 8080,
      "##左右": 8081,
      "##出现了": 8082,
      "##自然选择": 8083,
      "“可": 8084,
      "##，就是": 8085,
      "##，可以": 8086,
      "##建造": 8087,
      "##看不到": 8088,
      "##会儿": 8089,
      "##空中": 8090,
      "##实验": 8091,
      "##尘埃": 8092,
      "##。。。。。": 8093,
      "##。那": 8094,
      "##的手": 8095,
      "##的目光": 8096,
      "##，即使": 8097,
      "##起来。": 8098,
      "##本来": 8099,
      "##本身": 8100,
      "##联系": 8101,
      "##达到": 8102,
      "##停止": 8103,
      "##什么？”": 8104,
      "##注意到": 8105,
      "##，将": 8106,
      "##一步": 8107,
      "##进人": 8108,
      "##见到": 8109,
      "##您的": 8110,
      "##经过": 8111,
      "##远处": 8112,
      "##相比": 8113,
      "##画师": 8114,
      "##澳大利": 8115,
      "##看到的": 8116,
      "章北海": 8117,
      "##人员": 8118,
      "##来到": 8119,
      "##就像": 8120,
      "##未来": 8121,
      "##舰队的": 8122,
      "##，仿佛": 8123,
      "##不断": 8124,
      "##轻轻": 8125,
      "##去。": 8126,
      "##内的": 8127,
      "##身体": 8128,
      "##信念": 8129,
      "##今天": 8130,
      "##指指": 8131,
      "##规律": 8132,
      "##两个世纪": 8133,
      "##，又": 8134,
      "##事情": 8135,
      "##熟悉": 8136,
      "##拥有": 8137,
      "##说：": 8138,
      "##的声音": 8139,
      "##，一个": 8140,
      "##，最后": 8141,
      "##保持": 8142,
      "##改变": 8143,
      "##交流": 8144,
      "##之前": 8145,
      "##试验": 8146,
      "##医生": 8147,
      "##dc": 8148,
      "##穿过": 8149,
      "##解释": 8150,
      "##逃亡": 8151,
      "##掩体": 8152,
      "##太阳的": 8153,
      "##澳大利亚": 8154,
      "##等待": 8155,
      "##其中": 8156,
      "##样子": 8157,
      "##就在": 8158,
      "##黑洞": 8159,
      "##星空": 8160,
      "##留下": 8161,
      "##准备": 8162,
      "##钢印": 8163,
      "##秒钟": 8164,
      "##走到": 8165,
      "##伟思": 8166,
      "##女孩": 8167,
      "##微笑": 8168,
      "##有一种": 8169,
      "##银河系": 8170,
      "##下面": 8171,
      "##没什么": 8172,
      "##者的": 8173,
      "##房间": 8174,
      "##成的": 8175,
      "##如此": 8176,
      "##星系": 8177,
      "##找到": 8178,
      "##奇怪": 8179,
      "##同样": 8180,
      "##了一下": 8181,
      "##，人类": 8182,
      "##子的": 8183,
      "##摧毁": 8184,
      "##坐标": 8185,
      "##’号": 8186,
      "##，“我": 8187,
      "##”号的": 8188,
      "##的感觉": 8189,
      "##方的": 8190,
      "##像是": 8191,
      "##直到": 8192,
      "##面前": 8193,
      "##核弹": 8194,
      "##转身": 8195,
      "##质量": 8196,
      "##曲率": 8197,
      "##盯着": 8198,
      "##，请": 8199,
      "##一阵": 8200,
      "##里的": 8201,
      "##使命": 8202,
      "##带着": 8203,
      "##数学": 8204,
      "##恐惧": 8205,
      "##影响": 8206,
      "##游戏": 8207,
      "##系统的": 8208,
      "##方面": 8209,
      "##好的": 8210,
      "##绝对": 8211,
      "##接收": 8212,
      "##迅速": 8213,
      "##瞬间": 8214,
      "##，但在": 8215,
      "##，不过": 8216,
      "##，说": 8217,
      "##，再": 8218,
      "##个人": 8219,
      "##设备": 8220,
      "##某种": 8221,
      "##专业": 8222,
      "##远镜": 8223,
      "##监听": 8224,
      "##清晰": 8225,
      "##曾经": 8226,
      "##产生的": 8227,
      "##海洋": 8228,
      "##很难": 8229,
      "##延绪": 8230,
      "##意思": 8231,
      "##数据": 8232,
      "##边缘": 8233,
      "##指着": 8234,
      "##太空军": 8235,
      "##，汪淼": 8236,
      "##一颗": 8237,
      "##地看着": 8238,
      "##空气": 8239,
      "##功率": 8240,
      "##王子": 8241,
      "##信号": 8242,
      "##浮在": 8243,
      "##末日": 8244,
      "##模型": 8245,
      "##我们的": 8246,
      "##变成了": 8247,
      "##说过": 8248,
      "##机器": 8249,
      "##一只": 8250,
      "##起身": 8251,
      "##深处": 8252,
      "##很好": 8253,
      "##分之一": 8254,
      "##二号": 8255,
      "##哪儿": 8256,
      "##地球的": 8257,
      "##，就像": 8258,
      "##是最": 8259,
      "##维持": 8260,
      "##望远镜": 8261,
      "##身上": 8262,
      "##属于": 8263,
      "##喜欢": 8264,
      "##件事": 8265,
      "##范围": 8266,
      "##消失了，": 8267,
      "##。。。。。。”": 8268,
      "这时，": 8269,
      "##。如果": 8270,
      "##在一起": 8271,
      "##一名": 8272,
      "##抬头": 8273,
      "##平静": 8274,
      "##反射": 8275,
      "##重新": 8276,
      "##卫星": 8277,
      "##一样，": 8278,
      "他们": 8279,
      "##，向": 8280,
      "##里面": 8281,
      "##这次": 8282,
      "##最近": 8283,
      "##见过": 8284,
      "##公元": 8285,
      "##放到": 8286,
      "##细节": 8287,
      "##运动": 8288,
      "##一个人": 8289,
      "##加速器": 8290,
      "##后者": 8291,
      "##那时": 8292,
      "##几十": 8293,
      "##无限": 8294,
      "##电梯": 8295,
      "##半个": 8296,
      "##吧？”": 8297,
      "##白色": 8298,
      "##按照": 8299,
      "##卫宁": 8300,
      "##各种": 8301,
      "##规模": 8302,
      "##，但他": 8303,
      "##飞船的": 8304,
      "##一条": 8305,
      "##老师": 8306,
      "##如何": 8307,
      "##就会": 8308,
      "##通信": 8309,
      "##同志": 8310,
      "##兴趣": 8311,
      "##衣服": 8312,
      "##材料": 8313,
      "##的一部分": 8314,
      "##光年": 8315,
      "##地说。": 8316,
      "##会场": 8317,
      "##现出": 8318,
      "##事实": 8319,
      "##大脑": 8320,
      "##执剑": 8321,
      "##电脑": 8322,
      "##度的": 8323,
      "##制造": 8324,
      "##数量": 8325,
      "##总是": 8326,
      "##领导": 8327,
      "##语言": 8328,
      "##住了": 8329,
      "##的技术": 8330,
      "##，更": 8331,
      "##着。": 8332,
      "##有可能": 8333,
      "##来说": 8334,
      "##那种": 8335,
      "##想法": 8336,
      "##就能": 8337,
      "##还在": 8338,
      "##情报": 8339,
      "##当时": 8340,
      "##十多": 8341,
      "##别的": 8342,
      "##量子": 8343,
      "##遥远": 8344,
      "##士兵": 8345,
      "##，其中": 8346,
      "##时刻": 8347,
      "##，两": 8348,
      "##着的": 8349,
      "##中国": 8350,
      "##前面": 8351,
      "##反应": 8352,
      "##认识": 8353,
      "##明显": 8354,
      "##第三": 8355,
      "##理事": 8356,
      "##重力": 8357,
      "##露出": 8358,
      "##欧洲": 8359,
      "##，或": 8360,
      "##不了": 8361,
      "##还没有": 8362,
      "##电话": 8363,
      "##十五": 8364,
      "##附近": 8365,
      "##思考": 8366,
      "##没有任何": 8367,
      "##，只能": 8368,
      "##在一": 8369,
      "##是不是": 8370,
      "##双眼": 8371,
      "##航迹": 8372,
      "##都很": 8373,
      "##形的": 8374,
      "##也在": 8375,
      "##证实": 8376,
      "##走出": 8377,
      "##做出": 8378,
      "##男人": 8379,
      "##什么都": 8380,
      "##，而且": 8381,
      "##的生活": 8382,
      "##飞机": 8383,
      "##“号": 8384,
      "##这时": 8385,
      "##是对": 8386,
      "##看了": 8387,
      "##直径": 8388,
      "##大气": 8389,
      "##水星": 8390,
      "##面上": 8391,
      "##而已": 8392,
      "##单位": 8393,
      "##接受": 8394,
      "##经历": 8395,
      "##惠子": 8396,
      "##降临": 8397,
      "##幕：": 8398,
      "##。”罗辑": 8399,
      "##三体舰队": 8400,
      "##，那个": 8401,
      "##，那些": 8402,
      "##最后的": 8403,
      "##的光芒": 8404,
      "##东方延绪": 8405,
      "##。这个": 8406,
      "##的眼睛": 8407,
      "##，人们": 8408,
      "##，同时": 8409,
      "##了？”": 8410,
      "##就要": 8411,
      "##公司": 8412,
      "##整体": 8413,
      "##令人": 8414,
      "##移动": 8415,
      "##适应": 8416,
      "##同时，": 8417,
      "##哪里": 8418,
      "##氢弹": 8419,
      "##升起": 8420,
      "##仍在": 8421,
      "##敌人": 8422,
      "##负责": 8423,
      "##了一些": 8424,
      "##，能": 8425,
      "##一号": 8426,
      "##万年": 8427,
      "##看出": 8428,
      "##不知": 8429,
      "##过的": 8430,
      "##上方": 8431,
      "##星际": 8432,
      "##实现": 8433,
      "##斯肯": 8434,
      "##证明": 8435,
      "##色彩": 8436,
      "##联邦": 8437,
      "##学者": 8438,
      "##般的": 8439,
      "##相对": 8440,
      "##监视": 8441,
      "##含义": 8442,
      "##曹彬": 8443,
      "##，这时": 8444,
      "##是一种": 8445,
      "##，不管": 8446,
      "##，它的": 8447,
      "##的距离": 8448,
      "##最大的": 8449,
      "##光的": 8450,
      "##不再": 8451,
      "##表情": 8452,
      "##上帝": 8453,
      "##至于": 8454,
      "##每个": 8455,
      "##分析": 8456,
      "##失重": 8457,
      "##别人": 8458,
      "##条件": 8459,
      "##远方": 8460,
      "##，这就是": 8461,
      "##知道，": 8462,
      "##星环”号": 8463,
      "##方案": 8464,
      "##有了": 8465,
      "##《三体": 8466,
      "##不多": 8467,
      "##更加": 8468,
      "##目的": 8469,
      "##大家": 8470,
      "##美丽": 8471,
      "##子弹": 8472,
      "##公里": 8473,
      "##放大": 8474,
      "##物体": 8475,
      "##数字": 8476,
      "##元首": 8477,
      "##参加": 8478,
      "##吃惊": 8479,
      "##各个": 8480,
      "##降低": 8481,
      "##青铜": 8482,
      "##说着，": 8483,
      "##，很快": 8484,
      "##不得": 8485,
      "##死亡": 8486,
      "##天，": 8487,
      "##高的": 8488,
      "##极其": 8489,
      "##黑色": 8490,
      "##文化": 8491,
      "##常伟思": 8492,
      "##红色": 8493,
      "##球体": 8494,
      "##精确": 8495,
      "##定的": 8496,
      "##默斯肯": 8497,
      "##啊，": 8498,
      "##掌握": 8499,
      "##爆发": 8500,
      "##胜利": 8501,
      "##亨特": 8502,
      "##困难": 8503,
      "##世纪的": 8504,
      "##物理学": 8505,
      "字幕：": 8506,
      "##。而": 8507,
      "##尔辛": 8508,
      "##说完": 8509,
      "##，想": 8510,
      "##，却": 8511,
      "##事儿": 8512,
      "##彻底": 8513,
      "##集中": 8514,
      "##赫尔辛": 8515,
      "##————": 8516,
      "##思想钢印": 8517,
      "一个": 8518,
      "现在": 8519,
      "##的研究": 8520,
      "##眼前": 8521,
      "##过来": 8522,
      "##了几": 8523,
      "##美国": 8524,
      "##镜面": 8525,
      "##审判": 8526,
      "##正是": 8527,
      "##谢谢": 8528,
      "##屏幕": 8529,
      "##仅仅": 8530,
      "##地球上": 8531,
      "##赫尔辛根": 8532,
      "“但": 8533,
      "“当然": 8534,
      "这个": 8535,
      "##。我们": 8536,
      "##最终": 8537,
      "##大小": 8538,
      "##难以": 8539,
      "##百多": 8540,
      "##球形": 8541,
      "##质子": 8542,
      "##始皇": 8543,
      "##王国": 8544,
      "##受到": 8545,
      "##政官": 8546,
      "##将军": 8547,
      "##超级": 8548,
      "##旋转": 8549,
      "##紧张": 8550,
      "##杨卫宁": 8551,
      "##一个小": 8552,
      "##蓝色空间”号": 8553,
      "“您": 8554,
      "##。你": 8555,
      "##的“": 8556,
      "##的高": 8557,
      "##的时候": 8558,
      "##一声": 8559,
      "##一块": 8560,
      "##声明": 8561,
      "##使得": 8562,
      "##透过": 8563,
      "##维度": 8564,
      "##智慧": 8565,
      "##意味": 8566,
      "##命令": 8567,
      "##队长": 8568,
      "##似的": 8569,
      "##试图": 8570,
      "##相互": 8571,
      "##边的": 8572,
      "##早就": 8573,
      "##向前": 8574,
      "##暴露": 8575,
      "##坎特": 8576,
      "##女人": 8577,
      "##冥王星": 8578,
      "##字塔": 8579,
      "##模拟": 8580,
      "##脸上": 8581,
      "##阶梯": 8582,
      "##拯救": 8583,
      "##。”他": 8584,
      "##可以看到": 8585,
      "##行星的": 8586,
      "##的问题": 8587,
      "##，被": 8588,
      "##在大": 8589,
      "##两人": 8590,
      "##心理": 8591,
      "##不在": 8592,
      "##地下": 8593,
      "##了，他": 8594,
      "##笑着": 8595,
      "##小心": 8596,
      "##生态": 8597,
      "##执行": 8598,
      "##怎样": 8599,
      "##记录": 8600,
      "##解读": 8601,
      "##什么？": 8602,
      "##周围的": 8603,
      "##，比如": 8604,
      "##所在": 8605,
      "##，虽然": 8606,
      "##一艘": 8607,
      "##下来。": 8608,
      "##具有": 8609,
      "##了，但": 8610,
      "##：在": 8611,
      "##很大": 8612,
      "##很少": 8613,
      "##而言": 8614,
      "##能量": 8615,
      "##核聚变": 8616,
      "##执政官": 8617,
      "##倒计": 8618,
      "##亚洲": 8619,
      "##尽头": 8620,
      "##纸条": 8621,
      "##走进": 8622,
      "##设想": 8623,
      "##年，": 8624,
      "##介绍": 8625,
      "##广阔": 8626,
      "##毕竟": 8627,
      "##办法": 8628,
      "##剩下": 8629,
      "##现在的": 8630,
      "##，也许": 8631,
      "##真正的": 8632,
      "“在": 8633,
      "##。从": 8634,
      "##。罗辑": 8635,
      "##威胁": 8636,
      "##，可能": 8637,
      "##一眼": 8638,
      "##最初": 8639,
      "##心里": 8640,
      "##护士": 8641,
      "##了解": 8642,
      "##了！”": 8643,
      "##让我": 8644,
      "##身份": 8645,
      "##显得": 8646,
      "##百万": 8647,
      "##碎片": 8648,
      "##金字塔": 8649,
      "##持续": 8650,
      "##惊奇": 8651,
      "##隐藏": 8652,
      "##法律": 8653,
      "##寒冷": 8654,
      "##疯狂": 8655,
      "##驱动": 8656,
      "##三体世界的": 8657,
      "“是的，": 8658,
      "##飞行器": 8659,
      "“如果": 8660,
      "##。其实": 8661,
      "##说，他": 8662,
      "##，由于": 8663,
      "##一位": 8664,
      "##一部分": 8665,
      "##并不是": 8666,
      "##那一": 8667,
      "##成员": 8668,
      "##得知": 8669,
      "##也能": 8670,
      "##火星": 8671,
      "##对着": 8672,
      "##神经": 8673,
      "##宽姨": 8674,
      "##提供": 8675,
      "##模糊": 8676,
      "##飘浮": 8677,
      "##罗辑的": 8678,
      "##三体人": 8679,
      "##你们的": 8680,
      "##，其实": 8681,
      "##这一切": 8682,
      "##万有引力”号": 8683,
      "##视野": 8684,
      "##从未": 8685,
      "##大厅": 8686,
      "##返回": 8687,
      "##随时": 8688,
      "##正确": 8689,
      "##千万": 8690,
      "##记忆": 8691,
      "##夜空": 8692,
      "##重的": 8693,
      "##香皂": 8694,
      "##增加": 8695,
      "##杨冬": 8696,
      "##沙漠": 8697,
      "##应该是": 8698,
      "##科学家": 8699,
      "##。与": 8700,
      "##的太阳": 8701,
      "##的方向": 8702,
      "##建设": 8703,
      "##是从": 8704,
      "##更多": 8705,
      "##出去": 8706,
      "##了，我": 8707,
      "##三颗": 8708,
      "##大多": 8709,
      "##进一步": 8710,
      "##长长": 8711,
      "##也没": 8712,
      "##文王": 8713,
      "##放弃": 8714,
      "##电视": 8715,
      "##新闻": 8716,
      "##绝望": 8717,
      "##讨论": 8718,
      "##兹罗": 8719,
      "##杉惠子": 8720,
      "##区域": 8721,
      "##指令": 8722,
      "##急剧": 8723,
      "##舷窗": 8724,
      "##燃烧": 8725,
      "##复杂的": 8726,
      "“你们": 8727,
      "##的，但": 8728,
      "##，好像": 8729,
      "##在这个": 8730,
      "##是否": 8731,
      "##人在": 8732,
      "##程度": 8733,
      "##看来": 8734,
      "##都会": 8735,
      "##从来": 8736,
      "##想起": 8737,
      "##构成": 8738,
      "##星舰": 8739,
      "##保护": 8740,
      "##遇到": 8741,
      "##第一个": 8742,
      "##名字": 8743,
      "##终端": 8744,
      "##办公": 8745,
      "##编队": 8746,
      "##地球文明": 8747,
      "##的人们": 8748,
      "##说：“我": 8749,
      "##一样。": 8750,
      "##《三体》": 8751,
      "##的长": 8752,
      "##，到": 8753,
      "##后，他": 8754,
      "##知识": 8755,
      "##作战": 8756,
      "##要是": 8757,
      "##都被": 8758,
      "##外的": 8759,
      "##文件": 8760,
      "##让人": 8761,
      "##判断": 8762,
      "##母亲": 8763,
      "##慢慢": 8764,
      "##穿着": 8765,
      "##兴奋": 8766,
      "##远远": 8767,
      "##组合": 8768,
      "##照片": 8769,
      "##破壁人": 8770,
      "##避免": 8771,
      "##熄灭": 8772,
      "##发出的": 8773,
      "##一直在": 8774,
      "##的那些": 8775,
      "“好": 8776,
      "智子": 8777,
      "##。汪淼": 8778,
      "##说着": 8779,
      "##，看到": 8780,
      "##，都是": 8781,
      "##，于是": 8782,
      "##前方": 8783,
      "##这话": 8784,
      "##军队": 8785,
      "##像一个": 8786,
      "##比较": 8787,
      "##了！": 8788,
      "##了许多": 8789,
      "##都能": 8790,
      "##想起了": 8791,
      "##黑色的": 8792,
      "##也有": 8793,
      "##聚集": 8794,
      "##让他": 8795,
      "##烈的": 8796,
      "##分别": 8797,
      "##干扰": 8798,
      "##警报": 8799,
      "##把它": 8800,
      "##设计": 8801,
      "##即将": 8802,
      "##扩散": 8803,
      "##记得": 8804,
      "##阵列": 8805,
      "##监测": 8806,
      "##漫长的": 8807,
      "##撞击": 8808,
      "##创造": 8809,
      "##程心的": 8810,
      "##三体文明": 8811,
      "##智子的": 8812,
      "##光速飞船": 8813,
      "##孩子们": 8814,
      "##失去了": 8815,
      "##青铜时代": 8816,
      "##意味着": 8817,
      "##，如": 8818,
      "##和“": 8819,
      "##人群": 8820,
      "##抬起": 8821,
      "##眼中": 8822,
      "##不想": 8823,
      "##想想": 8824,
      "##巨大": 8825,
      "##放在": 8826,
      "##制止": 8827,
      "##关键": 8828,
      "##专家": 8829,
      "##伟大的": 8830,
      "##按钮": 8831,
      "##提出": 8832,
      "##燃料": 8833,
      "##陨石": 8834,
      "##，这次": 8835,
      "##世界上": 8836,
      "##这样一个": 8837,
      "##。这种": 8838,
      "##感觉到": 8839,
      "##它们的": 8840,
      "“这是": 8841,
      "##充满了": 8842,
      "“他": 8843,
      "关一帆": 8844,
      "##。所以": 8845,
      "##纳米": 8846,
      "##，当然": 8847,
      "##，似乎": 8848,
      "##一会儿": 8849,
      "##下了": 8850,
      "##前进": 8851,
      "##是有": 8852,
      "##是不": 8853,
      "##是很": 8854,
      "##地问。": 8855,
      "##消灭": 8856,
      "##点儿": 8857,
      "##星的": 8858,
      "##？！”": 8859,
      "##命运": 8860,
      "##亮的": 8861,
      "##原子": 8862,
      "##找到了": 8863,
      "##做到": 8864,
      "##司令": 8865,
      "##角度": 8866,
      "##影像": 8867,
      "##组成": 8868,
      "##主任": 8869,
      "##超过": 8870,
      "##覆盖": 8871,
      "##崩溃": 8872,
      "##规则": 8873,
      "##奥伦": 8874,
      "##，我是": 8875,
      "##程心和": 8876,
      "##：“我": 8877,
      "##点点头，“": 8878,
      "##摇摇头，“": 8879,
      "##之外的": 8880,
      "##赫尔辛根默斯肯": 8881,
      "a。": 8882,
      "##。不过": 8883,
      "##，无": 8884,
      "##，看着": 8885,
      "##在太空中": 8886,
      "##头发": 8887,
      "##不动": 8888,
      "##表现": 8889,
      "##得多": 8890,
      "##可见": 8891,
      "##带来": 8892,
      "##文字": 8893,
      "##分之": 8894,
      "##行动": 8895,
      "##战士": 8896,
      "##队列": 8897,
      "##理想": 8898,
      "##颗恒星": 8899,
      "##满了": 8900,
      "##项目": 8901,
      "##艘飞船": 8902,
      "##i。": 8903,
      "##仔细": 8904,
      "##玉菲": 8905,
      "##哈哈": 8906,
      "##，但这": 8907,
      "##。这时": 8908,
      "##，对于": 8909,
      "史强": 8910,
      "##。由于": 8911,
      "##海王星": 8912,
      "##，宇宙": 8913,
      "##，发现": 8914,
      "##，几乎": 8915,
      "##，直到": 8916,
      "##一千": 8917,
      "##位于": 8918,
      "##眼镜": 8919,
      "##不太": 8920,
      "##印象": 8921,
      "##天的": 8922,
      "##全息": 8923,
      "##星云": 8924,
      "##让她": 8925,
      "##保证": 8926,
      "##行为": 8927,
      "##短短": 8928,
      "##幸运": 8929,
      "##季姆": 8930,
      "##化的": 8931,
      "##居然": 8932,
      "##伊文斯": 8933,
      "##古代": 8934,
      "##资料": 8935,
      "##啊。”": 8936,
      "##岁月": 8937,
      "##宣布": 8938,
      "##秘密": 8939,
      "##针眼": 8940,
      "##，她们": 8941,
      "##。这些": 8942,
      "##计划的": 8943,
      "##的事情": 8944,
      "##工程师": 8945,
      "##意识到": 8946,
      "##防御理事": 8947,
      "##飞星": 8948,
      "##，没": 8949,
      "##，除了": 8950,
      "##在那里": 8951,
      "##一段": 8952,
      "##吴岳": 8953,
      "##中间": 8954,
      "##是人类": 8955,
      "##两次": 8956,
      "##那是": 8957,
      "##出来的": 8958,
      "##五个": 8959,
      "##美的": 8960,
      "##上次": 8961,
      "##还能": 8962,
      "##体积": 8963,
      "##半径": 8964,
      "##足够": 8965,
      "##十几": 8966,
      "##尽管": 8967,
      "##幸福": 8968,
      "##八十": 8969,
      "##关于": 8970,
      "##共同": 8971,
      "##相同": 8972,
      "##稳定": 8973,
      "##沿着": 8974,
      "##了一下，": 8975,
      "##，一切": 8976,
      "##太阳系的": 8977,
      "##怎么样": 8978,
      "##天文单位": 8979,
      "##，或者": 8980,
      "“哦": 8981,
      "云天明": 8982,
      "大史": 8983,
      "破壁人": 8984,
      "##的水": 8985,
      "##，地球": 8986,
      "##深水": 8987,
      "##开了": 8988,
      "##大量的": 8989,
      "##引起": 8990,
      "##预测": 8991,
      "##表示": 8992,
      "##表达": 8993,
      "##成一": 8994,
      "##舰上": 8995,
      "##异常": 8996,
      "##二百": 8997,
      "##必要": 8998,
      "##导致": 8999,
      "##静地": 9000,
      "##寻找": 9001,
      "##了，你": 9002,
      "程心和": 9003,
      "##不同的": 9004,
      "##推进器": 9005,
      "##女孩儿": 9006,
      "##奥伦娜": 9007,
      "##防御理事会": 9008,
      "“没有": 9009,
      "##”的": 9010,
      "##机构": 9011,
      "##，已经": 9012,
      "##，所有": 9013,
      "##，叶文洁": 9014,
      "##，看上去": 9015,
      "##在他": 9016,
      "##他在": 9017,
      "##人。”": 9018,
      "##程序": 9019,
      "##不起": 9020,
      "##出来。": 9021,
      "##空旷": 9022,
      "##进来": 9023,
      "##部的": 9024,
      "##面积": 9025,
      "##得到了": 9026,
      "##封闭": 9027,
      "##对他": 9028,
      "##公众": 9029,
      "##发送": 9030,
      "##山杉惠子": 9031,
      "##界面": 9032,
      "##默默": 9033,
      "##将在": 9034,
      "##障碍": 9035,
      "##各位": 9036,
      "##寂静": 9037,
      "##旋涡": 9038,
      "##灾难": 9039,
      "##出现的": 9040,
      "##审判日": 9041,
      "##，开始": 9042,
      "##下去，": 9043,
      "##最高": 9044,
      "##老人": 9045,
      "##更多的": 9046,
      "##具体": 9047,
      "##19": 9048,
      "##了，这": 9049,
      "##用的": 9050,
      "##好，": 9051,
      "##小型": 9052,
      "##就行": 9053,
      "##斯坦": 9054,
      "##常规": 9055,
      "##原始": 9056,
      "##岩石": 9057,
      "##回头": 9058,
      "##回事": 9059,
      "##击中": 9060,
      "##单元": 9061,
      "##关闭": 9062,
      "##手中": 9063,
      "##解决": 9064,
      "##经济": 9065,
      "##谈话": 9066,
      "##称为": 9067,
      "##四十": 9068,
      "##女性": 9069,
      "##收到": 9070,
      "##悬浮在": 9071,
      "##粒子": 9072,
      "##艰难": 9073,
      "##可能性": 9074,
      "##太空中的": 9075,
      "##是一片": 9076,
      "##。这时，": 9077,
      "##最后一": 9078,
      "审问": 9079,
      "##。它": 9080,
      "##的火": 9081,
      "##时，他": 9082,
      "##，后来": 9083,
      "##双手": 9084,
      "##处理": 9085,
      "##只要": 9086,
      "##了好": 9087,
      "##层次": 9088,
      "##者，": 9089,
      "##很有": 9090,
      "##很不": 9091,
      "##上校": 9092,
      "##外面的": 9093,
      "##丝毫": 9094,
      "##望着": 9095,
      "##灯光": 9096,
      "##魔戒": 9097,
      "##乱纪元": 9098,
      "##门，": 9099,
      "##落到": 9100,
      "##瓦季姆": 9101,
      "##政委": 9102,
      "##呼吸": 9103,
      "##周文王": 9104,
      "##迹象": 9105,
      "##低声": 9106,
      "##低谷": 9107,
      "##陷入": 9108,
      "##闪烁": 9109,
      "##怀疑": 9110,
      "##诺伊": 9111,
      "##梦中": 9112,
      "##，但现在": 9113,
      "##了一眼": 9114,
      "##宇宙中的": 9115,
      "##，那时": 9116,
      "##显然是": 9117,
      "##相当于": 9118,
      "审问者": 9119,
      "“为什么": 9120,
      "##的金属": 9121,
      "##，连": 9122,
      "##这事": 9123,
      "##光粒": 9124,
      "##出了一": 9125,
      "##空白": 9126,
      "##投入": 9127,
      "##小小的": 9128,
      "##生的": 9129,
      "##完整": 9130,
      "##外界": 9131,
      "##真是": 9132,
      "##就可以": 9133,
      "##黑域": 9134,
      "##也不知道": 9135,
      "##回来": 9136,
      "##王宫": 9137,
      "##影子": 9138,
      "##年后": 9139,
      "##参谋": 9140,
      "##脚步": 9141,
      "##林格": 9142,
      "##景象": 9143,
      "##重复": 9144,
      "##日子": 9145,
      "##援朝": 9146,
      "##软件": 9147,
      "##牛顿": 9148,
      "##跟踪": 9149,
      "##没有人": 9150,
      "##，她的": 9151,
      "##，他们的": 9152,
      "##的那一": 9153,
      "##物理学家": 9154,
      "##主要是": 9155,
      "##自然选择”号": 9156,
      "##倒计时": 9157,
      "##诺伊曼": 9158,
      "##的恒星": 9159,
      "##飞向": 9160,
      "##，应该": 9161,
      "##一座": 9162,
      "##有过": 9163,
      "##声。": 9164,
      "##平线": 9165,
      "##不管": 9166,
      "##不清": 9167,
      "##不敢": 9168,
      "##18": 9169,
      "##其中的": 9170,
      "##进去": 9171,
      "##形象": 9172,
      "##实际": 9173,
      "##自由": 9174,
      "##保存": 9175,
      "##延续": 9176,
      "##分子": 9177,
      "##明确": 9178,
      "##发光": 9179,
      "##身边": 9180,
      "##战役": 9181,
      "##电波": 9182,
      "##回去": 9183,
      "##取得": 9184,
      "##打算": 9185,
      "##温暖": 9186,
      "##同步": 9187,
      "##向上": 9188,
      "##递给": 9189,
      "##咱们": 9190,
      "##阶段": 9191,
      "##闪电": 9192,
      "##玻璃": 9193,
      "##饕餮": 9194,
      "##检测": 9195,
      "##秦始皇": 9196,
      "##肉眼": 9197,
      "##夕阳": 9198,
      "##，我想": 9199,
      "##不同，": 9200,
      "##冬眠者": 9201,
      "##十分钟": 9202,
      "##失败主义": 9203,
      "##报告": 9204,
      "##说明": 9205,
      "##的宇宙": 9206,
      "##，人": 9207,
      "##在一个": 9208,
      "##一旦": 9209,
      "##下来的": 9210,
      "##下面的": 9211,
      "##中央": 9212,
      "##起航": 9213,
      "##看清": 9214,
      "##光芒": 9215,
      "##预警": 9216,
      "##长长的": 9217,
      "##尾迹": 9218,
      "##能看到": 9219,
      "##你是": 9220,
      "##命题": 9221,
      "##常常": 9222,
      "##给我": 9223,
      "##坚持": 9224,
      "##精致": 9225,
      "##走了": 9226,
      "##石头": 9227,
      "##恒纪元": 9228,
      "##围绕": 9229,
      "##此时": 9230,
      "##卫兵": 9231,
      "##描述": 9232,
      "##沙发": 9233,
      "##革命": 9234,
      "##斐兹罗": 9235,
      "##灿烂": 9236,
      "##，我的": 9237,
      "##什么。": 9238,
      "##可能的": 9239,
      "##发现了": 9240,
      "##行星防御理事会": 9241,
      "##存在的": 9242,
      "##消失了。": 9243,
      "##发生了": 9244,
      "##告诉你": 9245,
      "##木星的": 9246,
      "##降临派": 9247,
      "这时": 9248,
      "##。当然": 9249,
      "##，真": 9250,
      "##，由": 9251,
      "##方法": 9252,
      "##有关": 9253,
      "##间的": 9254,
      "##是：": 9255,
      "##两名": 9256,
      "##来说，": 9257,
      "##不用": 9258,
      "##不行": 9259,
      "##地说": 9260,
      "##地把": 9261,
      "##三人": 9262,
      "##空荡": 9263,
      "##差不多": 9264,
      "##部队": 9265,
      "##很小": 9266,
      "##面临": 9267,
      "##上升": 9268,
      "##见的": 9269,
      "##舱壁": 9270,
      "##；而": 9271,
      "##体。": 9272,
      "##冷静": 9273,
      "##墓碑": 9274,
      "##尽快": 9275,
      "##碎块": 9276,
      "##穿透": 9277,
      "##别墅": 9278,
      "##导弹": 9279,
      "##跨越": 9280,
      "##正式": 9281,
      "##白色的": 9282,
      "##犹豫": 9283,
      "##独立": 9284,
      "##已被": 9285,
      "##年代": 9286,
      "##拿起": 9287,
      "##终极": 9288,
      "##突破": 9289,
      "##隐喻": 9290,
      "##广场": 9291,
      "##教授": 9292,
      "##各国": 9293,
      "##露珠": 9294,
      "##启示": 9295,
      "##六十": 9296,
      "##痛苦": 9297,
      "##拒绝": 9298,
      "##。”程心": 9299,
      "##，在这": 9300,
      "##。这是": 9301,
      "##发现，": 9302,
      "##——”": 9303,
      "##世纪前": 9304,
      "##唯一的": 9305,
      "##执剑人": 9306,
      "##大气层": 9307,
      "审问者：": 9308,
      "##的空间": 9309,
      "##的样子": 9310,
      "##，不是": 9311,
      "##，还是": 9312,
      "##在内的": 9313,
      "##着一个": 9314,
      "##造成": 9315,
      "##中最": 9316,
      "##后面的": 9317,
      "##有几": 9318,
      "##深海": 9319,
      "##出一个": 9320,
      "##开的": 9321,
      "##都没": 9322,
      "##多次": 9323,
      "##好。”": 9324,
      "##大片": 9325,
      "##大学": 9326,
      "##大量": 9327,
      "##就没有": 9328,
      "##对我": 9329,
      "##对程心": 9330,
      "##自身": 9331,
      "##晓明": 9332,
      "##‘号": 9333,
      "##手中的": 9334,
      "##做的": 9335,
      "##瓦西": 9336,
      "##科幻": 9337,
      "##舒适": 9338,
      "##拍摄": 9339,
      "##性的": 9340,
      "##安慰": 9341,
      "##艺术": 9342,
      "##仍是": 9343,
      "##笼罩": 9344,
      "##六个": 9345,
      "##委员": 9346,
      "##微观": 9347,
      "##敏感": 9348,
      "##申玉菲": 9349,
      "##，但她": 9350,
      "##，他在": 9351,
      "##太空的": 9352,
      "##人类社会": 9353,
      "##了一切": 9354,
      "##的人。": 9355,
      "##时代的": 9356,
      "##二维平面": 9357,
      "##外星文明": 9358,
      "##尘埃云": 9359,
      "##办公室": 9360,
      "##青铜时代”号": 9361,
      "a。i。": 9362,
      "伊文斯": 9363,
      "舰队": 9364,
      "##的不": 9365,
      "##的那个": 9366,
      "##，全": 9367,
      "##他，": 9368,
      "##一张": 9369,
      "##“星环”号": 9370,
      "##军人": 9371,
      "##到来": 9372,
      "##光滑": 9373,
      "##不出": 9374,
      "##10": 9375,
      "##了些": 9376,
      "##航程": 9377,
      "##开关": 9378,
      "##事件": 9379,
      "##大地": 9380,
      "##小组": 9381,
      "##上一": 9382,
      "##可是": 9383,
      "##也很": 9384,
      "##道：“": 9385,
      "##巨型": 9386,
      "##让你": 9387,
      "##保留": 9388,
      "##类似": 9389,
      "##发布": 9390,
      "##倒是": 9391,
      "##冰沙": 9392,
      "##力的": 9393,
      "##回忆": 9394,
      "##魔鬼": 9395,
      "##之后，": 9396,
      "##雪茄": 9397,
      "##雷斯": 9398,
      "##雷达": 9399,
      "##阴影": 9400,
      "##白的": 9401,
      "##相反": 9402,
      "##相应": 9403,
      "##边界": 9404,
      "##官员": 9405,
      "##·诺伊曼": 9406,
      "##震惊": 9407,
      "##低光速": 9408,
      "##ia": 9409,
      "##脱水": 9410,
      "##安乐": 9411,
      "##否则": 9412,
      "##集团": 9413,
      "##幽灵": 9414,
      "##掠过": 9415,
      "##，但我": 9416,
      "##已经没有": 9417,
      "##，不要": 9418,
      "##信息窗口": 9419,
      "##水滴的": 9420,
      "##认为，": 9421,
      "##这一点": 9422,
      "##过程中": 9423,
      "##之间的": 9424,
      "##，每个": 9425,
      "丁仪": 9426,
      "希恩斯": 9427,
      "##机械": 9428,
      "##海中": 9429,
      "##，看": 9430,
      "##，云天明": 9431,
      "##，包括": 9432,
      "##在地": 9433,
      "##有多": 9434,
      "##这两": 9435,
      "##这两个": 9436,
      "##膨胀": 9437,
      "##等等": 9438,
      "##高能": 9439,
      "##用于": 9440,
      "##房子": 9441,
      "##笑笑": 9442,
      "##预料": 9443,
      "##去了": 9444,
      "##每一个": 9445,
      "##管道": 9446,
      "##动作": 9447,
      "##核心": 9448,
      "##火球": 9449,
      "##对象": 9450,
      "##自动": 9451,
      "##你说": 9452,
      "##愿意": 9453,
      "##准确": 9454,
      "##度，": 9455,
      "##力地": 9456,
      "##原来": 9457,
      "##群星": 9458,
      "##随意": 9459,
      "##之前，": 9460,
      "##活动": 9461,
      "##静静地": 9462,
      "##孤独": 9463,
      "##恐怖": 9464,
      "##相机": 9465,
      "##早已": 9466,
      "##首长": 9467,
      "##台上": 9468,
      "##追击": 9469,
      "##卫队长": 9470,
      "##升机": 9471,
      "##占据": 9472,
      "##猜测": 9473,
      "##跟着": 9474,
      "##pdc": 9475,
      "##这个世界": 9476,
      "##三体星系": 9477,
      "##，只要": 9478,
      "##进行了": 9479,
      "##的那种": 9480,
      "##一切都": 9481,
      "##曲率驱动": 9482,
      "##星舰地球": 9483,
      "我们": 9484,
      "##。人们": 9485,
      "##时期": 9486,
      "##一天": 9487,
      "##一小": 9488,
      "##一道": 9489,
      "##方面的": 9490,
      "##视着": 9491,
      "##建议": 9492,
      "##这儿": 9493,
      "##是说": 9494,
      "##两舰": 9495,
      "##军事": 9496,
      "##起飞": 9497,
      "##老弟": 9498,
      "##深渊": 9499,
      "##只手": 9500,
      "##空中的": 9501,
      "##用了": 9502,
      "##引擎": 9503,
      "##生产": 9504,
      "##生物": 9505,
      "##水平": 9506,
      "##表明": 9507,
      "##极端": 9508,
      "##成果": 9509,
      "##上面的": 9510,
      "##外部": 9511,
      "##为止": 9512,
      "##可怕": 9513,
      "##明天": 9514,
      "##意外": 9515,
      "##警告": 9516,
      "##‘自然选择": 9517,
      "##权限": 9518,
      "##国王": 9519,
      "##吧？": 9520,
      "##设施": 9521,
      "##功能": 9522,
      "##萨伊": 9523,
      "##参数": 9524,
      "##限制": 9525,
      "##艘战舰": 9526,
      "##固定": 9527,
      "##担心": 9528,
      "##考察": 9529,
      "##剩下的": 9530,
      "##微微": 9531,
      "##ce": 9532,
      "##频率": 9533,
      "##已经被": 9534,
      "##出现了，": 9535,
      "##光速的": 9536,
      "##恒星的": 9537,
      "##城市的": 9538,
      "##状态，": 9539,
      "##面壁者的": 9540,
      "##星环城": 9541,
      "##红岸基地": 9542,
      "##的巨大": 9543,
      "破壁人二号": 9544,
      "“现在": 9545,
      "雷迪亚兹": 9546,
      "##尔宁": 9547,
      "##的力量": 9548,
      "##的基础": 9549,
      "##海军": 9550,
      "##，真的": 9551,
      "##有限": 9552,
      "##到这里": 9553,
      "##光。": 9554,
      "##过来，": 9555,
      "##了起来，": 9556,
      "##：我": 9557,
      "##天体": 9558,
      "##与地球": 9559,
      "##！！": 9560,
      "##火焰": 9561,
      "##对她": 9562,
      "##发的": 9563,
      "##行的": 9564,
      "##身后": 9565,
      "##身影": 9566,
      "##无所": 9567,
      "##红卫兵": 9568,
      "##转动": 9569,
      "##图形": 9570,
      "##冲击": 9571,
      "##走上": 9572,
      "##亿年": 9573,
      "##通讯": 9574,
      "##诡异": 9575,
      "##脆弱": 9576,
      "##照亮": 9577,
      "##因素": 9578,
      "##领域": 9579,
      "##抓住": 9580,
      "##妻子": 9581,
      "##脱离": 9582,
      "##模式": 9583,
      "##潘寒": 9584,
      "##昨天": 9585,
      "##狄奥伦娜": 9586,
      "##太空电梯": 9587,
      "##知道这": 9588,
      "##的人都": 9589,
      "##时间，": 9590,
      "##所有人": 9591,
      "##地面上": 9592,
      "##威慑纪元": 9593,
      "##特别是": 9594,
      "##相比，": 9595,
      "##默默地": 9596,
      "ice": 9597,
      "如果": 9598,
      "没有": 9599,
      "##。叶文洁": 9600,
      "##的存在": 9601,
      "##的工作": 9602,
      "##的情况": 9603,
      "##越过": 9604,
      "##，小": 9605,
      "##，谁": 9606,
      "##，且": 9607,
      "##，智子": 9608,
      "##一人": 9609,
      "##一年": 9610,
      "##和孩子": 9611,
      "##中有": 9612,
      "##是这样": 9613,
      "##不需要": 9614,
      "##错误": 9615,
      "##竟然": 9616,
      "##地问": 9617,
      "##了个": 9618,
      "##航线": 9619,
      "##开，": 9620,
      "##与会": 9621,
      "##使他": 9622,
      "##大概": 9623,
      "##大陆": 9624,
      "##几天": 9625,
      "##五百": 9626,
      "##为此": 9627,
      "##舰体": 9628,
      "##对这": 9629,
      "##无关": 9630,
      "##亮度": 9631,
      "##战场": 9632,
      "##武装": 9633,
      "##百分之": 9634,
      "##转移": 9635,
      "##神秘": 9636,
      "##走向": 9637,
      "##定位": 9638,
      "##之处": 9639,
      "##任务": 9640,
      "##往事": 9641,
      "##口气": 9642,
      "##口口": 9643,
      "##泡沫": 9644,
      "##重大": 9645,
      "##网络": 9646,
      "##柔软": 9647,
      "##晋文": 9648,
      "##妈妈": 9649,
      "##休息": 9650,
      "##疲惫": 9651,
      "##秘书": 9652,
      "##拦截": 9653,
      "##皇帝": 9654,
      "##帮助": 9655,
      "##躺在": 9656,
      "##呵呵": 9657,
      "##，但没有": 9658,
      "##已经在": 9659,
      "##人类文明": 9660,
      "##的人群": 9661,
      "##，像一": 9662,
      "##，像是": 9663,
      "“那你": 9664,
      "##安全声明": 9665,
      "##四维空间": 9666,
      "##年轻人": 9667,
      "##逃亡主义": 9668,
      "##联邦政府": 9669,
      "于是": 9670,
      "人们": 9671,
      "##的这": 9672,
      "##的画": 9673,
      "##的，我": 9674,
      "##的结果": 9675,
      "##时光": 9676,
      "##，正": 9677,
      "##，飞船": 9678,
      "##在那": 9679,
      "##里面的": 9680,
      "##这人": 9681,
      "##是由": 9682,
      "##是为了": 9683,
      "##没人": 9684,
      "##不及": 9685,
      "##不存在": 9686,
      "##等着": 9687,
      "##会有": 9688,
      "##了他": 9689,
      "##了这个": 9690,
      "##了起来": 9691,
      "##目前的": 9692,
      "##进步": 9693,
      "##五年": 9694,
      "##反正": 9695,
      "##上的一": 9696,
      "##构成的": 9697,
      "##还要": 9698,
      "##还有一": 9699,
      "##对话": 9700,
      "##智能": 9701,
      "##90": 9702,
      "##运河": 9703,
      "##原理": 9704,
      "##混乱": 9705,
      "##权力": 9706,
      "##效应": 9707,
      "##吧。": 9708,
      "##适合": 9709,
      "##静止": 9710,
      "##石块": 9711,
      "##感兴趣": 9712,
      "##识别": 9713,
      "##墙壁": 9714,
      "##传统": 9715,
      "##月光": 9716,
      "##循环": 9717,
      "##加上": 9718,
      "##挥手": 9719,
      "##借助": 9720,
      "##悬浮": 9721,
      "##客厅": 9722,
      "##了一种": 9723,
      "##就是一个": 9724,
      "##两个世界": 9725,
      "##技术的": 9726,
      "##社会学": 9727,
      "##显示出": 9728,
      "##二维化": 9729,
      "##，使得": 9730,
      "##历史上": 9731,
      "##引力波发射": 9732,
      "##公元世纪": 9733,
      "##明显的": 9734,
      "##空荡荡": 9735,
      "##‘自然选择’号": 9736,
      "泰勒": 9737,
      "##。虽然": 9738,
      "##的阳光": 9739,
      "##，总": 9740,
      "##，有一": 9741,
      "##一件": 9742,
      "##中，他": 9743,
      "##“蓝色空间”号": 9744,
      "##来得": 9745,
      "##眼神": 9746,
      "##不对": 9747,
      "##不安": 9748,
      "##个天文单位": 9749,
      "##只剩下": 9750,
      "##：你": 9751,
      "##天花": 9752,
      "##高速": 9753,
      "##标志": 9754,
      "##其他的": 9755,
      "##点。": 9756,
      "##形态": 9757,
      "##很远": 9758,
      "##很大的": 9759,
      "##全世界": 9760,
      "##反复": 9761,
      "##成熟": 9762,
      "##流逝": 9763,
      "##上有": 9764,
      "##上百": 9765,
      "##真空": 9766,
      "##本质": 9767,
      "##每天": 9768,
      "##每秒": 9769,
      "##也不是": 9770,
      "##也不可能": 9771,
      "##动力": 9772,
      "##她在": 9773,
      "##？！": 9774,
      "##放下": 9775,
      "##身处": 9776,
      "##显现": 9777,
      "##无人": 9778,
      "##短暂": 9779,
      "##激动": 9780,
      "##蓝星": 9781,
      "##回到了": 9782,
      "##找不到": 9783,
      "##门口": 9784,
      "##轰鸣": 9785,
      "##之后": 9786,
      "##壁炉": 9787,
      "##同意": 9788,
      "##舒服": 9789,
      "##朋友": 9790,
      "##密集": 9791,
      "##置身": 9792,
      "##紧急": 9793,
      "##宏观": 9794,
      "##幅画": 9795,
      "##弗雷斯": 9796,
      "##尺度": 9797,
      "##。”汪淼": 9798,
      "##，这就": 9799,
      "##什么东西": 9800,
      "##什么都没有": 9801,
      "##的，在": 9802,
      "##的，是": 9803,
      "##了。他": 9804,
      "##三体危机": 9805,
      "##了一会儿": 9806,
      "##，那里": 9807,
      "##的人，": 9808,
      "##信息的": 9809,
      "##，也是": 9810,
      "##说，然后": 9811,
      "##的事。": 9812,
      "##，有的": 9813,
      "##注意力": 9814,
      "##另一侧": 9815,
      "##数学模型": 9816,
      "维德": 9817,
      "##的白": 9818,
      "##的战略": 9819,
      "##一把": 9820,
      "##一支": 9821,
      "##建成": 9822,
      "##中校": 9823,
      "##有两个": 9824,
      "##里。": 9825,
      "##是谁": 9826,
      "##是怎么": 9827,
      "##两位": 9828,
      "##两颗": 9829,
      "##平衡": 9830,
      "##平台": 9831,
      "##深深": 9832,
      "##不由": 9833,
      "##觉察": 9834,
      "##只有一": 9835,
      "##只是一个": 9836,
      "##地位": 9837,
      "##了这": 9838,
      "##了，我们": 9839,
      "##统帅": 9840,
      "##多么": 9841,
      "##大低谷": 9842,
      "##长达": 9843,
      "##全人类": 9844,
      "##成一个": 9845,
      "##还不": 9846,
      "##也会": 9847,
      "##也都": 9848,
      "##也就是": 9849,
      "##变形": 9850,
      "##对此": 9851,
      "##文学": 9852,
      "##延伸": 9853,
      "##示意": 9854,
      "##难道": 9855,
      "##儿子": 9856,
      "##风吹": 9857,
      "##整齐": 9858,
      "##把目光": 9859,
      "##理由": 9860,
      "##打量": 9861,
      "##手段": 9862,
      "##雪山": 9863,
      "##雷志": 9864,
      "##居住": 9865,
      "##信心": 9866,
      "##感受": 9867,
      "##纪念": 9868,
      "##传递": 9869,
      "##因此": 9870,
      "##推测": 9871,
      "##严重": 9872,
      "##绿色": 9873,
      "##提示": 9874,
      "##收集": 9875,
      "##et": 9876,
      "##醒来": 9877,
      "##破坏": 9878,
      "##咒语": 9879,
      "##纷纷": 9880,
      "##婴儿": 9881,
      "##漆黑": 9882,
      "##。”章北海": 9883,
      "##了，她": 9884,
      "##的，你": 9885,
      "##太空服": 9886,
      "##了。但": 9887,
      "##，“你": 9888,
      "##地球三体": 9889,
      "##，那么": 9890,
      "##……我": 9891,
      "##是一名": 9892,
      "##这里的": 9893,
      "##的大地": 9894,
      "##消失在": 9895,
      "##第二次": 9896,
      "##是什么？”": 9897,
      "##危机纪元": 9898,
      "##清晰地": 9899,
      "##委员会": 9900,
      "##天花板": 9901,
      "“有": 9902,
      "“怎么": 9903,
      "##说出": 9904,
      "##的天空": 9905,
      "##飞出": 9906,
      "##飞快": 9907,
      "##，同": 9908,
      "##，必须": 9909,
      "##，后者": 9910,
      "##间隔": 9911,
      "##心中": 9912,
      "##个小时": 9913,
      "##比如": 9914,
      "##直升机": 9915,
      "##现象": 9916,
      "##航向": 9917,
      "##天堂": 9918,
      "##高兴": 9919,
      "##消耗": 9920,
      "##者们": 9921,
      "##大规模": 9922,
      "##进了": 9923,
      "##！我": 9924,
      "##很长时间": 9925,
      "##全面": 9926,
      "##外，": 9927,
      "##本书": 9928,
      "##星海": 9929,
      "##星光": 9930,
      "##每次": 9931,
      "##道，": 9932,
      "##对你": 9933,
      "##对自己": 9934,
      "##冷酷": 9935,
      "##然后，": 9936,
      "##承认": 9937,
      "##承担": 9938,
      "##公民": 9939,
      "##放心": 9940,
      "##运载": 9941,
      "##激光": 9942,
      "##岩浆": 9943,
      "##群落": 9944,
      "##联席": 9945,
      "##理会": 9946,
      "##初步": 9947,
      "##之中，": 9948,
      "##树枝": 9949,
      "##化为": 9950,
      "##感。": 9951,
      "##思议": 9952,
      "##未来的": 9953,
      "##向外": 9954,
      "##清理": 9955,
      "##歌者": 9956,
      "##候选": 9957,
      "##哲泰": 9958,
      "##区别": 9959,
      "##指向": 9960,
      "##幻觉": 9961,
      "##马上": 9962,
      "##获得": 9963,
      "##宗教": 9964,
      "##扎兰": 9965,
      "##鞠躬": 9966,
      "##，但由于": 9967,
      "##已经很": 9968,
      "##的一次": 9969,
      "##是一件": 9970,
      "##，一直": 9971,
      "##产生了": 9972,
      "##的那样": 9973,
      "##黑暗中": 9974,
      "##回答。": 9975,
      "##三维空间": 9976,
      "##作用力": 9977,
      "##简单的": 9978,
      "##000": 9979,
      "##遥远的": 9980,
      "##广阔的": 9981,
      "##同步轨道": 9982,
      "##饕餮鱼": 9983,
      "##906": 9984,
      "太空": 9985,
      "第二": 9986,
      "说。": 9987,
      "##。一": 9988,
      "##的气": 9989,
      "##的部分": 9990,
      "##的表面": 9991,
      "##的形状": 9992,
      "##，为": 9993,
      "##，感觉": 9994,
      "##，章北海": 9995,
      "##，显然": 9996,
      "##在哪儿": 9997,
      "##他妈": 9998,
      "##北美": 9999
    }
  }
}